/* Copyright 2019 The TensorFlow Authors. All Rights Reserved.

Licensed under the Apache License, Version 2.0 (the "License");
you may not use this file except in compliance with the License.
You may obtain a copy of the License at

    http://www.apache.org/licenses/LICENSE-2.0

Unless required by applicable law or agreed to in writing, software
distributed under the License is distributed on an "AS IS" BASIS,
WITHOUT WARRANTIES OR CONDITIONS OF ANY KIND, either express or implied.
See the License for the specific language governing permissions and
limitations under the License.
==============================================================================*/

// Automatically created from a TensorFlow Lite flatbuffer using the command:
// xxd -i magic_wand_model.tflite > magic_wand_model_data.cc
// See the README for a full description of the creation process.

#include "magic_wand_model_data.h"

// Keep model aligned to 8 bytes to guarantee aligned 64-bit accesses.
alignas(8) const unsigned char g_magic_wand_model_data[] = {
  0x1c, 0x00, 0x00, 0x00, 0x54, 0x46, 0x4c, 0x33, 0x14, 0x00, 0x20, 0x00,
  0x04, 0x00, 0x08, 0x00, 0x0c, 0x00, 0x10, 0x00, 0x14, 0x00, 0x00, 0x00,
  0x18, 0x00, 0x1c, 0x00, 0x14, 0x00, 0x00, 0x00, 0x03, 0x00, 0x00, 0x00,
  0x18, 0x00, 0x00, 0x00, 0x2c, 0x00, 0x00, 0x00, 0x58, 0x01, 0x00, 0x00,
  0x2c, 0x00, 0x00, 0x00, 0x00, 0x01, 0x00, 0x00, 0x78, 0x00, 0x00, 0x00,
  0x05, 0x00, 0x00, 0x00, 0x94, 0x07, 0x00, 0x00, 0xb0, 0x06, 0x00, 0x00,
  0x4c, 0x04, 0x00, 0x00, 0x88, 0x03, 0x00, 0x00, 0x2c, 0x02, 0x00, 0x00,
  0x01, 0x00, 0x00, 0x00, 0x50, 0x01, 0x00, 0x00, 0x14, 0x00, 0x00, 0x00,
  0xe0, 0x32, 0x00, 0x00, 0xdc, 0x32, 0x00, 0x00, 0xf4, 0x31, 0x00, 0x00,
  0x68, 0x31, 0x00, 0x00, 0xe4, 0x30, 0x00, 0x00, 0x84, 0x30, 0x00, 0x00,
  0x18, 0x30, 0x00, 0x00, 0xc8, 0x13, 0x00, 0x00, 0x34, 0x12, 0x00, 0x00,
  0x58, 0x10, 0x00, 0x00, 0xfc, 0x07, 0x00, 0x00, 0xb4, 0x32, 0x00, 0x00,
  0xb0, 0x32, 0x00, 0x00, 0xac, 0x32, 0x00, 0x00, 0xa8, 0x32, 0x00, 0x00,
  0xa4, 0x32, 0x00, 0x00, 0xa0, 0x32, 0x00, 0x00, 0x9c, 0x32, 0x00, 0x00,
  0x98, 0x32, 0x00, 0x00, 0xbc, 0x00, 0x00, 0x00, 0x01, 0x00, 0x00, 0x00,
  0x10, 0x00, 0x00, 0x00, 0x00, 0x00, 0x0a, 0x00, 0x10, 0x00, 0x0c, 0x00,
  0x08, 0x00, 0x04, 0x00, 0x0a, 0x00, 0x00, 0x00, 0x0c, 0x00, 0x00, 0x00,
  0x1c, 0x00, 0x00, 0x00, 0x20, 0x00, 0x00, 0x00, 0x0f, 0x00, 0x00, 0x00,
  0x73, 0x65, 0x72, 0x76, 0x69, 0x6e, 0x67, 0x5f, 0x64, 0x65, 0x66, 0x61,
  0x75, 0x6c, 0x74, 0x00, 0x01, 0x00, 0x00, 0x00, 0x14, 0x00, 0x00, 0x00,
  0x01, 0x00, 0x00, 0x00, 0x24, 0x00, 0x00, 0x00, 0x08, 0x00, 0x0c, 0x00,
  0x08, 0x00, 0x04, 0x00, 0x08, 0x00, 0x00, 0x00, 0x11, 0x00, 0x00, 0x00,
  0x04, 0x00, 0x00, 0x00, 0x07, 0x00, 0x00, 0x00, 0x64, 0x65, 0x6e, 0x73,
  0x65, 0x5f, 0x31, 0x00, 0xc2, 0xce, 0xff, 0xff, 0x04, 0x00, 0x00, 0x00,
  0x0c, 0x00, 0x00, 0x00, 0x63, 0x6f, 0x6e, 0x76, 0x32, 0x64, 0x5f, 0x69,
  0x6e, 0x70, 0x75, 0x74, 0x00, 0x00, 0x00, 0x00, 0x01, 0x00, 0x00, 0x00,
  0x0c, 0x00, 0x00, 0x00, 0x08, 0x00, 0x0c, 0x00, 0x04, 0x00, 0x08, 0x00,
  0x08, 0x00, 0x00, 0x00, 0x08, 0x00, 0x00, 0x00, 0x13, 0x00, 0x00, 0x00,
  0x13, 0x00, 0x00, 0x00, 0x6d, 0x69, 0x6e, 0x5f, 0x72, 0x75, 0x6e, 0x74,
  0x69, 0x6d, 0x65, 0x5f, 0x76, 0x65, 0x72, 0x73, 0x69, 0x6f, 0x6e, 0x00,
  0x12, 0xcf, 0xff, 0xff, 0x04, 0x00, 0x00, 0x00, 0x10, 0x00, 0x00, 0x00,
  0x31, 0x2e, 0x35, 0x2e, 0x30, 0x00, 0x00, 0x00, 0x00, 0x00, 0x00, 0x00,
  0x00, 0x00, 0x00, 0x00, 0x0f, 0x00, 0x00, 0x00, 0x4d, 0x4c, 0x49, 0x52,
  0x20, 0x43, 0x6f, 0x6e, 0x76, 0x65, 0x72, 0x74, 0x65, 0x64, 0x2e, 0x00,
  0x00, 0x00, 0x0e, 0x00, 0x18, 0x00, 0x04, 0x00, 0x08, 0x00, 0x0c, 0x00,
  0x10, 0x00, 0x14, 0x00, 0x0e, 0x00, 0x00, 0x00, 0x14, 0x00, 0x00, 0x00,
  0x5c, 0x00, 0x00, 0x00, 0x60, 0x00, 0x00, 0x00, 0x64, 0x00, 0x00, 0x00,
  0x84, 0x00, 0x00, 0x00, 0x12, 0x00, 0x00, 0x00, 0x10, 0x31, 0x00, 0x00,
  0xc4, 0x30, 0x00, 0x00, 0x54, 0x30, 0x00, 0x00, 0xd0, 0x2f, 0x00, 0x00,
  0x50, 0x2f, 0x00, 0x00, 0xdc, 0x2e, 0x00, 0x00, 0x74, 0x2e, 0x00, 0x00,
  0x20, 0x12, 0x00, 0x00, 0x84, 0x10, 0x00, 0x00, 0xa8, 0x0e, 0x00, 0x00,
  0xf8, 0x05, 0x00, 0x00, 0x14, 0x05, 0x00, 0x00, 0xf8, 0x03, 0x00, 0x00,
  0x4c, 0x03, 0x00, 0x00, 0xa8, 0x02, 0x00, 0x00, 0xe4, 0x01, 0x00, 0x00,
  0x20, 0x01, 0x00, 0x00, 0x84, 0x00, 0x00, 0x00, 0x01, 0x00, 0x00, 0x00,
  0x00, 0x00, 0x00, 0x00, 0x01, 0x00, 0x00, 0x00, 0x11, 0x00, 0x00, 0x00,
  0x08, 0x00, 0x00, 0x00, 0x60, 0x05, 0x00, 0x00, 0x80, 0x04, 0x00, 0x00,
  0x88, 0x03, 0x00, 0x00, 0xcc, 0x02, 0x00, 0x00, 0x40, 0x02, 0x00, 0x00,
  0x60, 0x01, 0x00, 0x00, 0xb8, 0x00, 0x00, 0x00, 0x10, 0x00, 0x00, 0x00,
  0x04, 0x00, 0x00, 0x00, 0x6d, 0x61, 0x69, 0x6e, 0x00, 0x00, 0x00, 0x00,
  0x6a, 0xff, 0xff, 0xff, 0x00, 0x00, 0x00, 0x09, 0x04, 0x00, 0x00, 0x00,
  0x1c, 0x00, 0x00, 0x00, 0x10, 0x00, 0x00, 0x00, 0x04, 0x00, 0x00, 0x00,
  0x0e, 0xd0, 0xff, 0xff, 0x00, 0x00, 0x80, 0x3f, 0x01, 0x00, 0x00, 0x00,
  0x11, 0x00, 0x00, 0x00, 0x01, 0x00, 0x00, 0x00, 0x10, 0x00, 0x00, 0x00,
  0xb4, 0xfa, 0xff, 0xff, 0x19, 0x00, 0x00, 0x00, 0x00, 0x00, 0x00, 0x19,
  0x01, 0x00, 0x00, 0x00, 0xcc, 0xcf, 0xff, 0xff, 0x14, 0x00, 0x00, 0x00,
  0x12, 0x00, 0x00, 0x00, 0x18, 0x00, 0x00, 0x00, 0x40, 0x00, 0x00, 0x00,
  0x30, 0x00, 0x00, 0x00, 0x02, 0x00, 0x00, 0x00, 0x01, 0x00, 0x00, 0x00,
  0x05, 0x00, 0x00, 0x00, 0x19, 0x00, 0x00, 0x00, 0x53, 0x74, 0x61, 0x74,
  0x65, 0x66, 0x75, 0x6c, 0x50, 0x61, 0x72, 0x74, 0x69, 0x74, 0x69, 0x6f,
  0x6e, 0x65, 0x64, 0x43, 0x61, 0x6c, 0x6c, 0x3a, 0x30, 0x00, 0x00, 0x00,
  0x02, 0x00, 0x00, 0x00, 0xff, 0xff, 0xff, 0xff, 0x05, 0x00, 0x00, 0x00,
  0x90, 0xd0, 0xff, 0xff, 0x00, 0x00, 0x0e, 0x00, 0x18, 0x00, 0x08, 0x00,
  0x0c, 0x00, 0x10, 0x00, 0x07, 0x00, 0x14, 0x00, 0x0e, 0x00, 0x00, 0x00,
  0x00, 0x00, 0x00, 0x08, 0x03, 0x00, 0x00, 0x00, 0x18, 0x00, 0x00, 0x00,
  0x0c, 0x00, 0x00, 0x00, 0x04, 0x00, 0x00, 0x00, 0xcc, 0xcf, 0xff, 0xff,
  0x01, 0x00, 0x00, 0x00, 0x10, 0x00, 0x00, 0x00, 0x03, 0x00, 0x00, 0x00,
  0x0f, 0x00, 0x00, 0x00, 0x07, 0x00, 0x00, 0x00, 0x01, 0x00, 0x00, 0x00,
  0x64, 0xd0, 0xff, 0xff, 0x14, 0x00, 0x00, 0x00, 0x11, 0x00, 0x00, 0x00,
  0x18, 0x00, 0x00, 0x00, 0x5c, 0x00, 0x00, 0x00, 0x4c, 0x00, 0x00, 0x00,
  0x02, 0x00, 0x00, 0x00, 0x01, 0x00, 0x00, 0x00, 0x05, 0x00, 0x00, 0x00,
  0x34, 0x00, 0x00, 0x00, 0x73, 0x65, 0x71, 0x75, 0x65, 0x6e, 0x74, 0x69,
  0x61, 0x6c, 0x2f, 0x64, 0x65, 0x6e, 0x73, 0x65, 0x5f, 0x31, 0x2f, 0x4d,
  0x61, 0x74, 0x4d, 0x75, 0x6c, 0x3b, 0x73, 0x65, 0x71, 0x75, 0x65, 0x6e,
  0x74, 0x69, 0x61, 0x6c, 0x2f, 0x64, 0x65, 0x6e, 0x73, 0x65, 0x5f, 0x31,
  0x2f, 0x42, 0x69, 0x61, 0x73, 0x41, 0x64, 0x64, 0x00, 0x00, 0x00, 0x00,
  0x02, 0x00, 0x00, 0x00, 0xff, 0xff, 0xff, 0xff, 0x05, 0x00, 0x00, 0x00,
  0x54, 0xd0, 0xff, 0xff, 0xfe, 0xfc, 0xff, 0xff, 0x00, 0x00, 0x00, 0x08,
  0x03, 0x00, 0x00, 0x00, 0x24, 0x00, 0x00, 0x00, 0x18, 0x00, 0x00, 0x00,
  0x0c, 0x00, 0x00, 0x00, 0x00, 0x00, 0x06, 0x00, 0x08, 0x00, 0x07, 0x00,
  0x06, 0x00, 0x00, 0x00, 0x00, 0x00, 0x00, 0x01, 0x01, 0x00, 0x00, 0x00,
  0x0f, 0x00, 0x00, 0x00, 0x03, 0x00, 0x00, 0x00, 0x0e, 0x00, 0x00, 0x00,
  0x06, 0x00, 0x00, 0x00, 0x02, 0x00, 0x00, 0x00, 0x0c, 0xfc, 0xff, 0xff,
  0x09, 0x00, 0x00, 0x00, 0x00, 0x00, 0x00, 0x09, 0x01, 0x00, 0x00, 0x00,
  0x24, 0xd1, 0xff, 0xff, 0x14, 0x00, 0x00, 0x00, 0x10, 0x00, 0x00, 0x00,
  0x18, 0x00, 0x00, 0x00, 0x6c, 0x00, 0x00, 0x00, 0x5c, 0x00, 0x00, 0x00,
  0x02, 0x00, 0x00, 0x00, 0x01, 0x00, 0x00, 0x00, 0x10, 0x00, 0x00, 0x00,
  0x46, 0x00, 0x00, 0x00, 0x73, 0x65, 0x71, 0x75, 0x65, 0x6e, 0x74, 0x69,
  0x61, 0x6c, 0x2f, 0x64, 0x65, 0x6e, 0x73, 0x65, 0x2f, 0x4d, 0x61, 0x74,
  0x4d, 0x75, 0x6c, 0x3b, 0x73, 0x65, 0x71, 0x75, 0x65, 0x6e, 0x74, 0x69,
  0x61, 0x6c, 0x2f, 0x64, 0x65, 0x6e, 0x73, 0x65, 0x2f, 0x52, 0x65, 0x6c,
  0x75, 0x3b, 0x73, 0x65, 0x71, 0x75, 0x65, 0x6e, 0x74, 0x69, 0x61, 0x6c,
  0x2f, 0x64, 0x65, 0x6e, 0x73, 0x65, 0x2f, 0x42, 0x69, 0x61, 0x73, 0x41,
  0x64, 0x64, 0x00, 0x00, 0x02, 0x00, 0x00, 0x00, 0xff, 0xff, 0xff, 0xff,
  0x10, 0x00, 0x00, 0x00, 0x14, 0xd2, 0xff, 0xff, 0x00, 0x00, 0x0a, 0x00,
  0x10, 0x00, 0x04, 0x00, 0x08, 0x00, 0x0c, 0x00, 0x0a, 0x00, 0x00, 0x00,
  0x02, 0x00, 0x00, 0x00, 0x10, 0x00, 0x00, 0x00, 0x04, 0x00, 0x00, 0x00,
  0x01, 0x00, 0x00, 0x00, 0x0e, 0x00, 0x00, 0x00, 0x02, 0x00, 0x00, 0x00,
  0x0d, 0x00, 0x00, 0x00, 0x05, 0x00, 0x00, 0x00, 0xcc, 0xfc, 0xff, 0xff,
  0x16, 0x00, 0x00, 0x00, 0x00, 0x00, 0x00, 0x16, 0x01, 0x00, 0x00, 0x00,
  0xe4, 0xd1, 0xff, 0xff, 0x14, 0x00, 0x00, 0x00, 0x0f, 0x00, 0x00, 0x00,
  0x18, 0x00, 0x00, 0x00, 0x40, 0x00, 0x00, 0x00, 0x30, 0x00, 0x00, 0x00,
  0x02, 0x00, 0x00, 0x00, 0x01, 0x00, 0x00, 0x00, 0x70, 0x00, 0x00, 0x00,
  0x1a, 0x00, 0x00, 0x00, 0x73, 0x65, 0x71, 0x75, 0x65, 0x6e, 0x74, 0x69,
  0x61, 0x6c, 0x2f, 0x66, 0x6c, 0x61, 0x74, 0x74, 0x65, 0x6e, 0x2f, 0x52,
  0x65, 0x73, 0x68, 0x61, 0x70, 0x65, 0x00, 0x00, 0x02, 0x00, 0x00, 0x00,
  0xff, 0xff, 0xff, 0xff, 0x70, 0x00, 0x00, 0x00, 0xb8, 0xd1, 0xff, 0xff,
  0x62, 0xfe, 0xff, 0xff, 0x00, 0x00, 0x00, 0x05, 0x01, 0x00, 0x00, 0x00,
  0x38, 0x00, 0x00, 0x00, 0x2c, 0x00, 0x00, 0x00, 0x14, 0x00, 0x00, 0x00,
  0x00, 0x00, 0x0e, 0x00, 0x14, 0x00, 0x00, 0x00, 0x10, 0x00, 0x0c, 0x00,
  0x08, 0x00, 0x04, 0x00, 0x0e, 0x00, 0x00, 0x00, 0x03, 0x00, 0x00, 0x00,
  0x01, 0x00, 0x00, 0x00, 0x03, 0x00, 0x00, 0x00, 0x01, 0x00, 0x00, 0x00,
  0x01, 0x00, 0x00, 0x00, 0x0d, 0x00, 0x00, 0x00, 0x01, 0x00, 0x00, 0x00,
  0x0c, 0x00, 0x00, 0x00, 0x84, 0xd2, 0xff, 0xff, 0x14, 0x00, 0x00, 0x00,
  0x0e, 0x00, 0x00, 0x00, 0x20, 0x00, 0x00, 0x00, 0x58, 0x00, 0x00, 0x00,
  0x40, 0x00, 0x00, 0x00, 0x04, 0x00, 0x00, 0x00, 0x01, 0x00, 0x00, 0x00,
  0x07, 0x00, 0x00, 0x00, 0x01, 0x00, 0x00, 0x00, 0x10, 0x00, 0x00, 0x00,
  0x22, 0x00, 0x00, 0x00, 0x73, 0x65, 0x71, 0x75, 0x65, 0x6e, 0x74, 0x69,
  0x61, 0x6c, 0x2f, 0x6d, 0x61, 0x78, 0x5f, 0x70, 0x6f, 0x6f, 0x6c, 0x69,
  0x6e, 0x67, 0x32, 0x64, 0x5f, 0x31, 0x2f, 0x4d, 0x61, 0x78, 0x50, 0x6f,
  0x6f, 0x6c, 0x00, 0x00, 0x04, 0x00, 0x00, 0x00, 0xff, 0xff, 0xff, 0xff,
  0x07, 0x00, 0x00, 0x00, 0x01, 0x00, 0x00, 0x00, 0x10, 0x00, 0x00, 0x00,
  0x70, 0xd2, 0xff, 0xff, 0x3e, 0xfe, 0xff, 0xff, 0x00, 0x00, 0x00, 0x01,
  0x24, 0x00, 0x00, 0x00, 0x18, 0x00, 0x00, 0x00, 0x04, 0x00, 0x00, 0x00,
  0x30, 0xfe, 0xff, 0xff, 0x01, 0x00, 0x00, 0x00, 0x01, 0x00, 0x00, 0x00,
  0x00, 0x00, 0x00, 0x01, 0x01, 0x00, 0x00, 0x00, 0x0c, 0x00, 0x00, 0x00,
  0x03, 0x00, 0x00, 0x00, 0x0b, 0x00, 0x00, 0x00, 0x09, 0x00, 0x00, 0x00,
  0x03, 0x00, 0x00, 0x00, 0x2c, 0xd3, 0xff, 0xff, 0x14, 0x00, 0x00, 0x00,
  0x0d, 0x00, 0x00, 0x00, 0x20, 0x00, 0x00, 0x00, 0x94, 0x00, 0x00, 0x00,
  0x7c, 0x00, 0x00, 0x00, 0x04, 0x00, 0x00, 0x00, 0x01, 0x00, 0x00, 0x00,
  0x15, 0x00, 0x00, 0x00, 0x01, 0x00, 0x00, 0x00, 0x10, 0x00, 0x00, 0x00,
  0x5d, 0x00, 0x00, 0x00, 0x73, 0x65, 0x71, 0x75, 0x65, 0x6e, 0x74, 0x69,
  0x61, 0x6c, 0x2f, 0x63, 0x6f, 0x6e, 0x76, 0x32, 0x64, 0x5f, 0x31, 0x2f,
  0x52, 0x65, 0x6c, 0x75, 0x3b, 0x73, 0x65, 0x71, 0x75, 0x65, 0x6e, 0x74,
  0x69, 0x61, 0x6c, 0x2f, 0x63, 0x6f, 0x6e, 0x76, 0x32, 0x64, 0x5f, 0x31,
  0x2f, 0x42, 0x69, 0x61, 0x73, 0x41, 0x64, 0x64, 0x3b, 0x73, 0x65, 0x71,
  0x75, 0x65, 0x6e, 0x74, 0x69, 0x61, 0x6c, 0x2f, 0x63, 0x6f, 0x6e, 0x76,
  0x32, 0x64, 0x5f, 0x31, 0x2f, 0x43, 0x6f, 0x6e, 0x76, 0x32, 0x44, 0x3b,
  0x63, 0x6f, 0x6e, 0x76, 0x32, 0x64, 0x5f, 0x31, 0x2f, 0x62, 0x69, 0x61,
  0x73, 0x00, 0x00, 0x00, 0x04, 0x00, 0x00, 0x00, 0xff, 0xff, 0xff, 0xff,
  0x15, 0x00, 0x00, 0x00, 0x01, 0x00, 0x00, 0x00, 0x10, 0x00, 0x00, 0x00,
  0x44, 0xd4, 0xff, 0xff, 0x00, 0x00, 0x0e, 0x00, 0x1a, 0x00, 0x08, 0x00,
  0x0c, 0x00, 0x10, 0x00, 0x07, 0x00, 0x14, 0x00, 0x0e, 0x00, 0x00, 0x00,
  0x00, 0x00, 0x00, 0x05, 0x01, 0x00, 0x00, 0x00, 0x3c, 0x00, 0x00, 0x00,
  0x30, 0x00, 0x00, 0x00, 0x14, 0x00, 0x00, 0x00, 0x00, 0x00, 0x0e, 0x00,
  0x18, 0x00, 0x17, 0x00, 0x10, 0x00, 0x0c, 0x00, 0x08, 0x00, 0x04, 0x00,
  0x0e, 0x00, 0x00, 0x00, 0x03, 0x00, 0x00, 0x00, 0x03, 0x00, 0x00, 0x00,
  0x03, 0x00, 0x00, 0x00, 0x03, 0x00, 0x00, 0x00, 0x00, 0x00, 0x00, 0x01,
  0x01, 0x00, 0x00, 0x00, 0x0b, 0x00, 0x00, 0x00, 0x01, 0x00, 0x00, 0x00,
  0x0a, 0x00, 0x00, 0x00, 0x2c, 0xff, 0xff, 0xff, 0x11, 0x00, 0x00, 0x00,
  0x00, 0x00, 0x00, 0x11, 0x01, 0x00, 0x00, 0x00, 0x44, 0xd4, 0xff, 0xff,
  0x14, 0x00, 0x00, 0x00, 0x0c, 0x00, 0x00, 0x00, 0x20, 0x00, 0x00, 0x00,
  0x58, 0x00, 0x00, 0x00, 0x40, 0x00, 0x00, 0x00, 0x04, 0x00, 0x00, 0x00,
  0x01, 0x00, 0x00, 0x00, 0x15, 0x00, 0x00, 0x00, 0x01, 0x00, 0x00, 0x00,
  0x08, 0x00, 0x00, 0x00, 0x20, 0x00, 0x00, 0x00, 0x73, 0x65, 0x71, 0x75,
  0x65, 0x6e, 0x74, 0x69, 0x61, 0x6c, 0x2f, 0x6d, 0x61, 0x78, 0x5f, 0x70,
  0x6f, 0x6f, 0x6c, 0x69, 0x6e, 0x67, 0x32, 0x64, 0x2f, 0x4d, 0x61, 0x78,
  0x50, 0x6f, 0x6f, 0x6c, 0x00, 0x00, 0x00, 0x00, 0x04, 0x00, 0x00, 0x00,
  0xff, 0xff, 0xff, 0xff, 0x15, 0x00, 0x00, 0x00, 0x01, 0x00, 0x00, 0x00,
  0x08, 0x00, 0x00, 0x00, 0x20, 0xd5, 0xff, 0xff, 0x00, 0x00, 0x0e, 0x00,
  0x14, 0x00, 0x00, 0x00, 0x08, 0x00, 0x0c, 0x00, 0x07, 0x00, 0x10, 0x00,
  0x0e, 0x00, 0x00, 0x00, 0x00, 0x00, 0x00, 0x01, 0x30, 0x00, 0x00, 0x00,
  0x24, 0x00, 0x00, 0x00, 0x10, 0x00, 0x00, 0x00, 0x0c, 0x00, 0x10, 0x00,
  0x00, 0x00, 0x04, 0x00, 0x08, 0x00, 0x0f, 0x00, 0x0c, 0x00, 0x00, 0x00,
  0x01, 0x00, 0x00, 0x00, 0x01, 0x00, 0x00, 0x00, 0x00, 0x00, 0x00, 0x01,
  0x01, 0x00, 0x00, 0x00, 0x0a, 0x00, 0x00, 0x00, 0x03, 0x00, 0x00, 0x00,
  0x00, 0x00, 0x00, 0x00, 0x08, 0x00, 0x00, 0x00, 0x04, 0x00, 0x00, 0x00,
  0x0c, 0x00, 0x10, 0x00, 0x0b, 0x00, 0x00, 0x00, 0x0c, 0x00, 0x04, 0x00,
  0x0c, 0x00, 0x00, 0x00, 0x03, 0x00, 0x00, 0x00, 0x00, 0x00, 0x00, 0x03,
  0x01, 0x00, 0x00, 0x00, 0x24, 0xd5, 0xff, 0xff, 0x14, 0x00, 0x00, 0x00,
  0x0b, 0x00, 0x00, 0x00, 0x20, 0x00, 0x00, 0x00, 0x8c, 0x00, 0x00, 0x00,
  0x74, 0x00, 0x00, 0x00, 0x04, 0x00, 0x00, 0x00, 0x01, 0x00, 0x00, 0x00,
  0x40, 0x00, 0x00, 0x00, 0x03, 0x00, 0x00, 0x00, 0x08, 0x00, 0x00, 0x00,
  0x55, 0x00, 0x00, 0x00, 0x73, 0x65, 0x71, 0x75, 0x65, 0x6e, 0x74, 0x69,
  0x61, 0x6c, 0x2f, 0x63, 0x6f, 0x6e, 0x76, 0x32, 0x64, 0x2f, 0x52, 0x65,
  0x6c, 0x75, 0x3b, 0x73, 0x65, 0x71, 0x75, 0x65, 0x6e, 0x74, 0x69, 0x61,
  0x6c, 0x2f, 0x63, 0x6f, 0x6e, 0x76, 0x32, 0x64, 0x2f, 0x42, 0x69, 0x61,
  0x73, 0x41, 0x64, 0x64, 0x3b, 0x73, 0x65, 0x71, 0x75, 0x65, 0x6e, 0x74,
  0x69, 0x61, 0x6c, 0x2f, 0x63, 0x6f, 0x6e, 0x76, 0x32, 0x64, 0x2f, 0x43,
  0x6f, 0x6e, 0x76, 0x32, 0x44, 0x3b, 0x63, 0x6f, 0x6e, 0x76, 0x32, 0x64,
  0x2f, 0x62, 0x69, 0x61, 0x73, 0x00, 0x00, 0x00, 0x04, 0x00, 0x00, 0x00,
  0xff, 0xff, 0xff, 0xff, 0x40, 0x00, 0x00, 0x00, 0x03, 0x00, 0x00, 0x00,
  0x08, 0x00, 0x00, 0x00, 0x44, 0xd5, 0xff, 0xff, 0x2e, 0xd6, 0xff, 0xff,
  0x04, 0x00, 0x00, 0x00, 0x00, 0x08, 0x00, 0x00, 0xe4, 0xce, 0x4d, 0xbe,
  0x7f, 0x0f, 0xe5, 0x3c, 0xe1, 0xce, 0x38, 0xbd, 0x62, 0x56, 0x3d, 0xbe,
  0xc5, 0x83, 0xbf, 0xbd, 0x81, 0xe4, 0xa4, 0x3c, 0x5a, 0x95, 0x8e, 0xbe,
  0xf1, 0xa1, 0xf6, 0xbd, 0x81, 0xc3, 0xbd, 0xbc, 0x4b, 0x2b, 0x50, 0x3e,
  0xe1, 0x32, 0xe9, 0x3d, 0x20, 0x08, 0x3b, 0xbe, 0x91, 0xa3, 0x01, 0xbd,
  0x63, 0xed, 0x0a, 0xbe, 0x0b, 0x44, 0x5f, 0xbe, 0x98, 0x98, 0xe2, 0x3d,
  0x1a, 0x3e, 0x0b, 0xbd, 0xd2, 0x74, 0xe7, 0x3d, 0xa4, 0x47, 0x9c, 0x3e,
  0x48, 0x6b, 0xc9, 0xbc, 0x83, 0xfe, 0x9d, 0x3e, 0xa9, 0x4a, 0x48, 0xbe,
  0xe0, 0xda, 0x13, 0xbd, 0x06, 0xfd, 0x88, 0x3e, 0x3e, 0xd1, 0x55, 0x3e,
  0x4f, 0x0e, 0x44, 0xbd, 0x51, 0x4a, 0x74, 0xbc, 0xd0, 0xb7, 0xa8, 0x3d,
  0xc1, 0xf5, 0xee, 0x3d, 0x4d, 0xe9, 0xc4, 0x3c, 0x24, 0x65, 0x0f, 0xbe,
  0xfb, 0x5b, 0x87, 0xbd, 0x19, 0x48, 0xb2, 0xbd, 0xf9, 0x3e, 0x5e, 0xbe,
  0xcc, 0x8e, 0x10, 0xbe, 0x90, 0xc9, 0x1c, 0x3e, 0x10, 0x13, 0x1e, 0xbd,
  0x40, 0xc4, 0x04, 0xbc, 0xf9, 0xed, 0xb4, 0xbd, 0x71, 0x5c, 0x8a, 0x3d,
  0xc5, 0xaf, 0x60, 0xbe, 0x7f, 0xa0, 0x53, 0xbd, 0xae, 0x0a, 0x89, 0xbd,
  0xa8, 0x25, 0xaa, 0x3e, 0x0b, 0xfb, 0x2c, 0xbe, 0xa4, 0x0c, 0x5e, 0xbd,
  0x4f, 0xaa, 0x39, 0x3b, 0x2d, 0xe3, 0xba, 0x3d, 0x9d, 0xb8, 0x64, 0xbe,
  0xb4, 0xe3, 0x08, 0x3d, 0x46, 0x91, 0xa0, 0x3e, 0xb8, 0x86, 0xc3, 0xbd,
  0x71, 0x1c, 0x13, 0xbe, 0xb6, 0x3d, 0xcd, 0xba, 0xab, 0xe3, 0x92, 0x3d,
  0xe8, 0x75, 0x24, 0xbd, 0x72, 0x74, 0x7f, 0xbe, 0xb8, 0x71, 0xb2, 0x3c,
  0xf2, 0x09, 0xe9, 0xbc, 0x73, 0x12, 0x20, 0xbe, 0xa6, 0x07, 0x4f, 0xbe,
  0x07, 0x5d, 0x9e, 0xbe, 0xed, 0x72, 0x17, 0xbe, 0xf4, 0x95, 0x6f, 0xbd,
  0x75, 0x9e, 0x95, 0xbc, 0x6f, 0x79, 0x6d, 0x3e, 0x2a, 0xb6, 0x81, 0xbd,
  0xdd, 0x7a, 0x88, 0xbe, 0x03, 0x89, 0x5b, 0xbe, 0x5f, 0x77, 0x8e, 0xbe,
  0x87, 0xd1, 0x16, 0xbd, 0x7a, 0xcf, 0x68, 0xbd, 0x60, 0x50, 0x1d, 0xbe,
  0x81, 0x9f, 0x8f, 0x3e, 0x03, 0xa1, 0xd6, 0x3a, 0x0c, 0x02, 0x57, 0xbe,
  0xe0, 0x57, 0xa3, 0xbd, 0xc5, 0xec, 0x45, 0xbe, 0x4f, 0x11, 0x86, 0x3b,
  0xf3, 0x11, 0x3d, 0xbe, 0xa2, 0xb0, 0xf9, 0x3b, 0x18, 0x0c, 0xe8, 0xbd,
  0xdd, 0x97, 0x85, 0xbe, 0x19, 0xb1, 0x8e, 0x3d, 0x8f, 0xf1, 0x86, 0xbe,
  0xed, 0xf2, 0x18, 0x3e, 0x2b, 0x04, 0xaa, 0xbd, 0xee, 0xb7, 0x8f, 0xbd,
  0xfa, 0x36, 0x29, 0x3e, 0x47, 0x46, 0x88, 0x3e, 0x7b, 0x91, 0x61, 0x3e,
  0x63, 0xbd, 0xce, 0x3d, 0xb2, 0x64, 0x9c, 0xba, 0xaa, 0x31, 0x9a, 0x3d,
  0x08, 0x95, 0x8a, 0xbd, 0x49, 0xab, 0x4c, 0xbd, 0xf1, 0xf8, 0x9d, 0xbc,
  0x5a, 0x14, 0x8e, 0x3e, 0x75, 0x45, 0xdc, 0x3d, 0xb5, 0x38, 0x2d, 0xbe,
  0xca, 0x75, 0x77, 0x3e, 0x9f, 0x2c, 0x65, 0xbe, 0x5e, 0x19, 0x88, 0xbd,
  0xc1, 0xa9, 0x41, 0xbd, 0x7d, 0x4f, 0x60, 0x3d, 0x62, 0x13, 0x1b, 0x3e,
  0x98, 0xfe, 0x98, 0x3d, 0xe2, 0xec, 0x03, 0x3e, 0xd7, 0xbc, 0x74, 0x3e,
  0xfd, 0x80, 0x0f, 0x3c, 0xeb, 0x0f, 0x39, 0xbe, 0x4b, 0x9e, 0xc4, 0x3d,
  0x23, 0xda, 0x11, 0xbe, 0xc2, 0x68, 0x97, 0xbe, 0x1a, 0x75, 0xeb, 0x3d,
  0xe6, 0xc4, 0x7a, 0x3e, 0x30, 0xbf, 0x40, 0xbc, 0x57, 0xab, 0x04, 0xbd,
  0x61, 0xa6, 0x42, 0xbe, 0xfc, 0x57, 0xec, 0xbd, 0x4e, 0x0c, 0x0d, 0xbe,
  0xa3, 0x95, 0x5d, 0xbe, 0x8e, 0xfe, 0x66, 0x3d, 0xc4, 0x99, 0x9f, 0xbd,
  0xfd, 0xbd, 0x14, 0x3e, 0x34, 0x53, 0x62, 0xbd, 0xf5, 0x65, 0x26, 0xbe,
  0x50, 0xd7, 0x29, 0x3d, 0x5c, 0xbc, 0x2f, 0x3e, 0xc3, 0xb5, 0x34, 0x3e,
  0x35, 0xd7, 0x0f, 0xbd, 0x48, 0x30, 0xd3, 0x3d, 0x4c, 0x6d, 0x85, 0x3e,
  0x2c, 0x44, 0x72, 0x3e, 0x54, 0x8b, 0xb0, 0xbd, 0x27, 0xe6, 0x1c, 0xbe,
  0xfa, 0x49, 0x37, 0x3d, 0xfd, 0x7b, 0x64, 0x3d, 0x38, 0x1d, 0x3e, 0xbe,
  0xa3, 0xbd, 0x87, 0xbc, 0xea, 0xed, 0x6b, 0xbd, 0x5a, 0xa7, 0x5a, 0xbe,
  0x6f, 0x0c, 0xa5, 0x3d, 0x70, 0xd8, 0x8f, 0xbe, 0x6c, 0x8a, 0x82, 0x3d,
  0xa4, 0x9f, 0xe3, 0xbd, 0xd8, 0x3f, 0x36, 0xbe, 0xac, 0x31, 0x05, 0xbe,
  0xe2, 0x68, 0x14, 0x3e, 0x6e, 0x15, 0x8d, 0x3c, 0x5e, 0xaf, 0x85, 0x3c,
  0x83, 0x56, 0xd0, 0x3c, 0xe5, 0x01, 0x93, 0x3e, 0x2f, 0x22, 0xf4, 0x3c,
  0x84, 0xb2, 0x83, 0x3e, 0xb4, 0x7d, 0xc9, 0xbd, 0xb0, 0xdd, 0x95, 0x3d,
  0x37, 0xa8, 0xd5, 0xbd, 0x5a, 0x8c, 0xd0, 0x3d, 0xe1, 0x8a, 0x39, 0x3e,
  0x26, 0xfe, 0x05, 0xbd, 0x4b, 0x76, 0x35, 0xbe, 0x68, 0x06, 0x40, 0xbd,
  0xb9, 0x86, 0x34, 0x3e, 0x7d, 0xfe, 0xc0, 0xbd, 0xb3, 0x2c, 0x03, 0xbe,
  0x18, 0x3b, 0x28, 0xbe, 0x42, 0x45, 0xbb, 0xbc, 0x99, 0x50, 0xfa, 0xbd,
  0xd7, 0x72, 0x86, 0xbd, 0x19, 0x82, 0xda, 0xbc, 0x24, 0x48, 0x8c, 0x3d,
  0x07, 0x21, 0x13, 0x3e, 0x2b, 0x45, 0x20, 0xbe, 0x7f, 0x5f, 0x8a, 0xbe,
  0xba, 0xcb, 0x5b, 0xbd, 0x4a, 0xa5, 0x88, 0xbe, 0xb5, 0xee, 0x9c, 0x3d,
  0x60, 0x29, 0xca, 0x3c, 0x45, 0x2b, 0x03, 0x3e, 0x6e, 0xd7, 0x94, 0xbe,
  0xde, 0xf8, 0xaf, 0x3c, 0x6a, 0x84, 0xf9, 0xbd, 0xe1, 0x0a, 0x9b, 0xbd,
  0xfb, 0x7a, 0x39, 0x3e, 0x82, 0x40, 0x81, 0xbe, 0x9e, 0x46, 0xea, 0xbd,
  0xc0, 0x3b, 0x9c, 0xbd, 0xce, 0xe6, 0x53, 0xbe, 0x4e, 0xf7, 0xd1, 0x3d,
  0xca, 0x85, 0x1f, 0xbe, 0x0f, 0xe7, 0xbc, 0xbd, 0x95, 0x9d, 0x20, 0xbe,
  0x44, 0x2c, 0x10, 0x3d, 0xb9, 0xee, 0x6d, 0xbe, 0x5a, 0x41, 0x13, 0xbe,
  0x1e, 0x28, 0x95, 0xbe, 0x94, 0x6e, 0x9c, 0xbe, 0x1f, 0xb7, 0x1b, 0xbd,
  0xbd, 0xb4, 0xd0, 0x3d, 0x71, 0xe6, 0x83, 0xbd, 0xe3, 0xb5, 0xd3, 0x3d,
  0x79, 0xaa, 0x2b, 0x3c, 0x70, 0xd7, 0xfd, 0xbd, 0x3e, 0x81, 0x0a, 0xbe,
  0x0d, 0xfa, 0xe7, 0xbd, 0xac, 0x47, 0xa0, 0xbd, 0x97, 0xe8, 0xfa, 0x3c,
  0x30, 0xca, 0xd2, 0xbd, 0x78, 0xcb, 0x0f, 0xbd, 0x94, 0xf2, 0x8a, 0xbc,
  0x09, 0xf9, 0xc2, 0x3d, 0x2f, 0x02, 0x27, 0x3c, 0x9e, 0xd8, 0x7f, 0xbd,
  0x85, 0x11, 0x4d, 0xbe, 0x8b, 0xdb, 0x63, 0xbe, 0x08, 0x7b, 0x28, 0xbe,
  0x41, 0x83, 0x1b, 0xbe, 0x30, 0x5c, 0x6d, 0x3e, 0xf4, 0xab, 0x8d, 0xbe,
  0x25, 0x4f, 0x29, 0x3c, 0x32, 0x67, 0xbd, 0x3d, 0xbd, 0x4e, 0x29, 0x3e,
  0xef, 0x04, 0x1d, 0x3e, 0x9c, 0x6e, 0x96, 0xbb, 0x07, 0xbd, 0x11, 0xbe,
  0x38, 0x5c, 0x1c, 0x3e, 0xaa, 0xe5, 0x01, 0xbe, 0x7c, 0x56, 0xea, 0xbd,
  0xc8, 0x7b, 0x9c, 0x3d, 0xb3, 0xa2, 0xeb, 0xbd, 0x04, 0x35, 0xb8, 0xbd,
  0x72, 0xc7, 0x6b, 0x3d, 0x57, 0x47, 0x0f, 0x3e, 0x7d, 0xd8, 0x95, 0x3d,
  0x36, 0x9e, 0xc6, 0x3d, 0x12, 0xf4, 0x2c, 0x3d, 0xfc, 0xea, 0xe6, 0xbd,
  0x11, 0x39, 0x1c, 0x3e, 0xb1, 0x0a, 0x74, 0x3d, 0xd5, 0x91, 0x20, 0x3d,
  0x3e, 0x9a, 0x1a, 0xbd, 0x1f, 0x3a, 0xa9, 0xbd, 0x56, 0x72, 0xaa, 0xbd,
  0x60, 0x5a, 0x6d, 0xbd, 0x4b, 0x23, 0xfa, 0x3b, 0xf3, 0xc0, 0xaa, 0x3d,
  0x66, 0x1f, 0x30, 0xbe, 0x22, 0xbc, 0x26, 0xbe, 0x8a, 0x45, 0xb8, 0x3d,
  0x23, 0xcd, 0x9f, 0xbd, 0x0c, 0x36, 0xe3, 0xbd, 0x94, 0x7b, 0x6f, 0xbe,
  0x24, 0x84, 0x10, 0xbe, 0x94, 0xfa, 0x38, 0x3e, 0x10, 0x0e, 0xa2, 0xbe,
  0xf0, 0xf4, 0x06, 0xbe, 0xd9, 0x64, 0x7a, 0x3b, 0x65, 0x0b, 0x81, 0xbe,
  0x56, 0x4e, 0xf9, 0xbc, 0xa2, 0x2c, 0x3f, 0xbe, 0x41, 0x44, 0xb9, 0xbc,
  0xe8, 0xa6, 0x4e, 0xbe, 0x25, 0x9b, 0x8c, 0xbe, 0x90, 0xf0, 0xe7, 0x3d,
  0xe4, 0x98, 0xf4, 0x3d, 0x0e, 0xbd, 0x92, 0x3c, 0xd6, 0x6a, 0xb8, 0xba,
  0xad, 0x2b, 0x76, 0x3e, 0x11, 0xe0, 0xbd, 0x3d, 0x48, 0xa2, 0xb2, 0x3c,
  0x18, 0xe8, 0xec, 0x3d, 0x69, 0x9d, 0x6a, 0x3d, 0x82, 0xbc, 0xf3, 0xbd,
  0xa9, 0xc6, 0x7d, 0x3e, 0x54, 0x30, 0x0c, 0xbc, 0x9c, 0xe2, 0x66, 0x3e,
  0xb9, 0xb4, 0x3a, 0x3e, 0x80, 0x3f, 0x0b, 0xbe, 0xf3, 0x27, 0xb0, 0xbd,
  0x8a, 0xc3, 0x87, 0xbe, 0xde, 0xcc, 0xef, 0xbe, 0x97, 0x2d, 0xa4, 0xbe,
  0xe3, 0x23, 0xe2, 0xbc, 0xbb, 0xff, 0x28, 0xbe, 0xdb, 0x5f, 0x4a, 0x3d,
  0xc2, 0x80, 0xdd, 0xbd, 0x17, 0xc0, 0x46, 0xbe, 0x95, 0xf6, 0x2c, 0xbe,
  0x17, 0xd3, 0xfc, 0xbd, 0xee, 0x2d, 0x90, 0xbd, 0x90, 0xbe, 0x86, 0xbd,
  0x0a, 0xf3, 0x8f, 0xbe, 0x5b, 0x61, 0x5c, 0x3e, 0x22, 0xaf, 0x97, 0xbd,
  0x2e, 0x1c, 0x6b, 0x3e, 0x35, 0xb7, 0xae, 0xbc, 0x7d, 0xb7, 0x31, 0xbe,
  0x39, 0x78, 0xe5, 0x3d, 0x60, 0xa1, 0x51, 0x3e, 0x5b, 0xcf, 0xf8, 0xbc,
  0xec, 0x54, 0xd3, 0x3d, 0xec, 0x40, 0x5e, 0x3e, 0xd5, 0xb1, 0x2b, 0xbc,
  0x83, 0xa8, 0x97, 0xbe, 0x99, 0xe7, 0x92, 0xbd, 0x53, 0x51, 0x1e, 0x3e,
  0xe3, 0xce, 0x8f, 0xbd, 0xdb, 0xe8, 0x31, 0x3e, 0x3d, 0xb3, 0x3b, 0x3c,
  0xc3, 0x91, 0xc2, 0x3c, 0x05, 0xd3, 0x11, 0xbe, 0xf9, 0x52, 0x50, 0xbe,
  0xf9, 0x18, 0xb5, 0x3c, 0x99, 0x4d, 0x24, 0xbe, 0xe3, 0xc4, 0x48, 0xbe,
  0x83, 0xe6, 0x66, 0xbc, 0xa1, 0xb1, 0x49, 0xbe, 0xd1, 0x7e, 0x66, 0xbe,
  0x80, 0xf1, 0x06, 0x3e, 0x5a, 0xa9, 0x4e, 0xbe, 0x1b, 0xba, 0x0e, 0xbd,
  0x72, 0x65, 0x2a, 0x3e, 0xc0, 0x00, 0x26, 0xbd, 0x2f, 0xd0, 0x67, 0xbe,
  0x85, 0x18, 0x7e, 0xbe, 0xfa, 0x10, 0x2f, 0xbe, 0x78, 0xb2, 0x16, 0xbe,
  0x37, 0x74, 0x77, 0xbd, 0xdf, 0x40, 0x7c, 0xbd, 0x37, 0x61, 0x87, 0xbe,
  0x83, 0x54, 0x18, 0x3e, 0x03, 0x4a, 0xe4, 0x3d, 0x98, 0x8a, 0x67, 0xbe,
  0x06, 0x68, 0x23, 0x3d, 0x81, 0x38, 0x1c, 0xbe, 0x0c, 0x3d, 0xf7, 0xbb,
  0x7a, 0x89, 0xc6, 0xbd, 0x89, 0x75, 0x66, 0xbd, 0x85, 0xd5, 0x56, 0xbe,
  0xc7, 0x2e, 0xd4, 0xbd, 0xbc, 0xde, 0x9f, 0xbd, 0x84, 0x40, 0x67, 0x3d,
  0x89, 0x63, 0xb4, 0x3d, 0xb6, 0x30, 0x5b, 0xbe, 0x86, 0xf2, 0x5e, 0xbe,
  0x68, 0xe9, 0x27, 0xbe, 0xa9, 0x5f, 0xa1, 0xbe, 0x0e, 0xf0, 0x0d, 0x3d,
  0x5c, 0x8c, 0xcd, 0x3d, 0xd6, 0x78, 0x45, 0xbe, 0x84, 0x49, 0xd1, 0xbb,
  0xb9, 0x0a, 0x87, 0x3d, 0x41, 0x81, 0xf8, 0xbd, 0xb9, 0x1f, 0x89, 0xbe,
  0x10, 0x96, 0x70, 0xbe, 0xc4, 0x52, 0x11, 0xbe, 0x45, 0xb1, 0xa3, 0x3b,
  0xe8, 0x04, 0x18, 0x3e, 0x39, 0x2a, 0xfd, 0xbc, 0x09, 0x54, 0x58, 0xbe,
  0x5c, 0x4d, 0x9a, 0xbd, 0xc3, 0x07, 0x84, 0xbe, 0xc4, 0x2c, 0xdf, 0xbd,
  0xf7, 0x6b, 0x10, 0xbe, 0xc5, 0xd1, 0xe5, 0x3c, 0xe0, 0xdd, 0xb2, 0x3d,
  0x92, 0x57, 0x8b, 0x3c, 0x20, 0x44, 0x24, 0x3d, 0xd6, 0x5c, 0x45, 0xbd,
  0x51, 0x72, 0x0c, 0xbd, 0xe5, 0x99, 0xc1, 0x3d, 0x5a, 0x80, 0xde, 0xbd,
  0x96, 0x0b, 0x50, 0xbe, 0x55, 0x02, 0xfe, 0x3d, 0x85, 0xd8, 0x26, 0x3d,
  0x11, 0xae, 0xa6, 0xbd, 0xf8, 0x1c, 0x8b, 0xbd, 0x79, 0xab, 0x84, 0xbd,
  0x1a, 0xc3, 0x7b, 0x3e, 0xdf, 0xa9, 0xda, 0x3d, 0xdf, 0x93, 0x07, 0x3e,
  0x04, 0xe6, 0x4f, 0xbd, 0x99, 0x78, 0x92, 0x3d, 0x10, 0x1f, 0xe9, 0xbd,
  0x85, 0xb6, 0x81, 0x3e, 0x3e, 0x11, 0x82, 0x3e, 0x28, 0x8a, 0x17, 0x3e,
  0x9c, 0xf3, 0x44, 0x3e, 0x61, 0x4a, 0x11, 0x3d, 0x33, 0x09, 0x2c, 0x3d,
  0xd5, 0x79, 0x6d, 0xbd, 0x81, 0xc1, 0x5d, 0xbe, 0xad, 0x56, 0x42, 0x3d,
  0xa6, 0x68, 0x93, 0xba, 0x75, 0x7e, 0x22, 0xbe, 0x65, 0xf1, 0xae, 0xbc,
  0x41, 0x7a, 0x23, 0x3d, 0xd1, 0xb0, 0x02, 0xbe, 0xaf, 0x3f, 0x2a, 0xbe,
  0x13, 0x83, 0xea, 0xbc, 0xe2, 0x35, 0x2e, 0xbe, 0xa5, 0x0e, 0xef, 0x3d,
  0xad, 0x70, 0x53, 0xba, 0x9b, 0xb7, 0x36, 0xbe, 0xd5, 0x18, 0x9b, 0xbd,
  0x7b, 0x04, 0x33, 0x3d, 0xff, 0x67, 0x8a, 0xbd, 0x2b, 0x5d, 0xa3, 0xbc,
  0x92, 0xd9, 0x7d, 0xbd, 0x68, 0x6b, 0x10, 0xbe, 0x9c, 0x4a, 0xef, 0x3b,
  0xa6, 0x45, 0x1d, 0xbd, 0xce, 0x53, 0x19, 0xbe, 0x24, 0x13, 0xba, 0xbd,
  0xa6, 0x25, 0x8a, 0x3e, 0x07, 0x56, 0x41, 0xbe, 0xc8, 0x10, 0x15, 0xbe,
  0x6b, 0x5c, 0x81, 0xbd, 0xc2, 0xc4, 0x16, 0xbe, 0x73, 0xab, 0x6b, 0x3d,
  0x74, 0xae, 0x4f, 0xbc, 0xf9, 0x4f, 0xb8, 0xbd, 0x00, 0xea, 0x19, 0xbe,
  0x15, 0x3a, 0x66, 0xbe, 0x6e, 0xee, 0x0c, 0x3e, 0xc7, 0xd3, 0x80, 0xbe,
  0x52, 0x63, 0x7b, 0xbe, 0x62, 0x68, 0xd9, 0xbc, 0xce, 0x13, 0xcc, 0x3c,
  0x24, 0xe7, 0x98, 0x3d, 0x23, 0x97, 0x95, 0x3d, 0x05, 0x49, 0x12, 0x3e,
  0xb0, 0x1e, 0xc2, 0xbd, 0x5c, 0x73, 0x32, 0xbe, 0x71, 0x57, 0x79, 0xbc,
  0x8a, 0x5a, 0x05, 0xbe, 0x6f, 0xf4, 0x59, 0x3d, 0x9c, 0xd3, 0x04, 0xbe,
  0xbc, 0x92, 0xaf, 0x3c, 0x40, 0x5e, 0xbd, 0xbd, 0xdc, 0x9b, 0x73, 0x3d,
  0xd1, 0x16, 0x82, 0xbc, 0xb2, 0x97, 0x11, 0x3c, 0x96, 0x2f, 0x52, 0xbe,
  0x9a, 0x49, 0x3d, 0xbe, 0x50, 0x78, 0xac, 0xbd, 0x0d, 0x15, 0x88, 0xbe,
  0x5e, 0xac, 0x16, 0x3e, 0xf5, 0xff, 0x38, 0xbe, 0xbc, 0x06, 0x81, 0x3e,
  0x0f, 0x83, 0xc4, 0x3d, 0x95, 0x1b, 0xae, 0xbd, 0xd6, 0xce, 0x72, 0xbd,
  0x12, 0x66, 0x46, 0x3e, 0xe1, 0xce, 0x2b, 0x3d, 0x1e, 0x51, 0x76, 0xbd,
  0x55, 0x08, 0x63, 0x3d, 0x2c, 0xaf, 0xbc, 0xbd, 0xaa, 0x0e, 0x22, 0xbc,
  0x74, 0xe2, 0x94, 0x3e, 0xf6, 0x14, 0x96, 0xbd, 0x48, 0x85, 0x29, 0xbe,
  0x1a, 0x30, 0x1a, 0xbd, 0x29, 0x2d, 0x22, 0xbe, 0x80, 0xeb, 0xd4, 0x3c,
  0xcd, 0xc2, 0x46, 0x3c, 0x0c, 0x70, 0xb9, 0xbc, 0x95, 0x13, 0xef, 0x3b,
  0xb6, 0x5f, 0x07, 0xbe, 0x2e, 0x04, 0x37, 0xbc, 0xc2, 0xb6, 0xab, 0xbd,
  0x2d, 0x28, 0xcf, 0xbc, 0xf0, 0xa4, 0x83, 0xbe, 0x28, 0x42, 0x7e, 0xbc,
  0x5d, 0x49, 0x46, 0xbe, 0x35, 0xd9, 0x99, 0xbd, 0x1d, 0xc6, 0xac, 0xbe,
  0x6d, 0x14, 0xa3, 0x3c, 0x52, 0x10, 0x77, 0x3c, 0x6f, 0x36, 0x1d, 0x3e,
  0xf3, 0xda, 0x1e, 0xbe, 0x98, 0x23, 0xa9, 0xbe, 0xd9, 0xa4, 0x4c, 0xbe,
  0xea, 0x32, 0x8b, 0xbe, 0xdf, 0x6c, 0x6d, 0xbe, 0x80, 0xaf, 0x81, 0x3e,
  0x14, 0x36, 0xd9, 0xbe, 0x5a, 0x74, 0x31, 0x3e, 0x8f, 0x53, 0xd9, 0xbd,
  0xc6, 0x9d, 0xaf, 0xbd, 0x1f, 0xc4, 0x6f, 0xbe, 0x55, 0x1f, 0x63, 0xbb,
  0x9b, 0x70, 0xe2, 0xbd, 0x14, 0xd8, 0x41, 0xbc, 0x24, 0xcf, 0x49, 0xbe,
  0x13, 0x26, 0xa9, 0xbc, 0x22, 0x88, 0x28, 0xbe, 0xc4, 0xe0, 0x2a, 0xbd,
  0x38, 0xd7, 0xc7, 0x3d, 0xd7, 0xba, 0xbd, 0xbd, 0x0a, 0xc2, 0x9f, 0x3d,
  0x87, 0xb7, 0x9f, 0x3d, 0xa5, 0xe8, 0xc7, 0xbc, 0xa7, 0x55, 0x21, 0x3a,
  0xe9, 0x2f, 0x98, 0xbe, 0xaf, 0x28, 0x52, 0x3d, 0xb2, 0x81, 0x36, 0x3e,
  0xc0, 0x82, 0x21, 0xbe, 0x04, 0xef, 0x3e, 0x3e, 0x7e, 0x98, 0xac, 0x3d,
  0x90, 0x4c, 0x84, 0x3d, 0x12, 0xde, 0xff, 0xff, 0x10, 0x00, 0x00, 0x00,
  0x0a, 0x00, 0x00, 0x00, 0x1c, 0x00, 0x00, 0x00, 0x38, 0x00, 0x00, 0x00,
  0x04, 0x00, 0x00, 0x00, 0x10, 0x00, 0x00, 0x00, 0x04, 0x00, 0x00, 0x00,
  0x01, 0x00, 0x00, 0x00, 0x08, 0x00, 0x00, 0x00, 0x1a, 0x00, 0x00, 0x00,
  0x73, 0x65, 0x71, 0x75, 0x65, 0x6e, 0x74, 0x69, 0x61, 0x6c, 0x2f, 0x63,
  0x6f, 0x6e, 0x76, 0x32, 0x64, 0x5f, 0x31, 0x2f, 0x43, 0x6f, 0x6e, 0x76,
  0x32, 0x44, 0x00, 0x00, 0x9c, 0xdd, 0xff, 0xff, 0x86, 0xde, 0xff, 0xff,
  0x04, 0x00, 0x00, 0x00, 0x80, 0x01, 0x00, 0x00, 0x33, 0x00, 0x7e, 0x3d,
  0x51, 0xa9, 0xc2, 0x3c, 0xe2, 0xfb, 0xaa, 0x3d, 0x35, 0xea, 0x9d, 0xbd,
  0x25, 0xf9, 0xde, 0x3d, 0x87, 0xcf, 0xcd, 0x3d, 0xfa, 0xbf, 0x18, 0x3d,
  0x06, 0x10, 0xab, 0x3d, 0x71, 0x39, 0xce, 0xbd, 0xe9, 0xe2, 0xff, 0x3d,
  0x75, 0x90, 0xd5, 0x3d, 0xf5, 0x45, 0x41, 0x3e, 0xf3, 0x6b, 0x8d, 0x3d,
  0xef, 0x7b, 0xaa, 0x3d, 0xff, 0x4d, 0x2a, 0x3e, 0x91, 0x20, 0x06, 0x3e,
  0x29, 0x19, 0x77, 0x3b, 0xb7, 0x93, 0xca, 0x3c, 0xec, 0x55, 0x5d, 0xbb,
  0xf1, 0xc3, 0x15, 0x3e, 0x4b, 0xb4, 0xb8, 0x3d, 0xe0, 0x17, 0x2b, 0x3d,
  0xf0, 0xac, 0xd5, 0x3d, 0x2c, 0xf7, 0x5b, 0x3e, 0x4e, 0x68, 0x5e, 0x3e,
  0x38, 0xa9, 0x0d, 0xbe, 0xe5, 0xdf, 0x17, 0x3e, 0x49, 0x17, 0x8e, 0xbd,
  0x82, 0xe1, 0x06, 0x3e, 0xa3, 0x15, 0x6c, 0xbe, 0x5d, 0x95, 0x48, 0x3e,
  0xb2, 0xd5, 0x24, 0x3e, 0xda, 0xcf, 0x00, 0x3d, 0x59, 0xe3, 0xbc, 0xbd,
  0x85, 0x36, 0x0f, 0xbd, 0x1e, 0xac, 0x2d, 0x3e, 0xe7, 0x08, 0x8c, 0x3d,
  0x41, 0x09, 0x0c, 0x3e, 0xfd, 0xa0, 0x15, 0x3e, 0x99, 0x5d, 0x0b, 0xbd,
  0x39, 0xf3, 0x2f, 0xbe, 0x93, 0x71, 0x04, 0xbe, 0x28, 0x3f, 0x15, 0x3e,
  0xa5, 0x40, 0x3e, 0xbd, 0x81, 0x4c, 0xf1, 0x3d, 0x2e, 0xff, 0xde, 0xbc,
  0x6a, 0xc4, 0x21, 0x3e, 0xc8, 0xd7, 0x37, 0xbe, 0xa7, 0x64, 0x40, 0x3e,
  0xf6, 0xf4, 0x93, 0x3e, 0xd0, 0xc1, 0x70, 0x3e, 0xc4, 0xb3, 0x37, 0x3c,
  0x0d, 0x6d, 0xbe, 0xbd, 0x2d, 0x10, 0xeb, 0xbc, 0x94, 0x39, 0x3d, 0x3d,
  0x0c, 0x06, 0xa9, 0xbd, 0x2f, 0x4a, 0x1d, 0xbe, 0xd9, 0x99, 0x49, 0x3e,
  0x85, 0xf9, 0x35, 0x3e, 0x60, 0xfa, 0x14, 0x3e, 0x36, 0x19, 0xce, 0x3d,
  0x68, 0x6b, 0x09, 0x3e, 0x9a, 0x9d, 0x35, 0x3e, 0x0b, 0xef, 0x3b, 0xbe,
  0x5f, 0xf4, 0xde, 0xbd, 0xf5, 0xf1, 0xec, 0x3d, 0x3b, 0xd3, 0x6a, 0x3d,
  0xe5, 0xcf, 0x37, 0xbd, 0x22, 0x38, 0xd8, 0xbd, 0x73, 0xfe, 0x41, 0x3d,
  0x22, 0x6c, 0x27, 0xbe, 0x5b, 0xa9, 0x40, 0xbe, 0x41, 0xd4, 0x6f, 0xbd,
  0xda, 0x40, 0x71, 0xba, 0x9e, 0x0b, 0xe0, 0xbd, 0xad, 0x48, 0xf4, 0x3c,
  0x07, 0xb7, 0x6b, 0xbe, 0xca, 0x5e, 0x3f, 0x3d, 0x2d, 0x0d, 0xdc, 0xbd,
  0x76, 0x1e, 0x90, 0x3d, 0x7b, 0x61, 0x0f, 0xbe, 0x96, 0x52, 0x17, 0xbd,
  0x87, 0x0a, 0x38, 0x3d, 0x20, 0x47, 0xff, 0xbc, 0xcf, 0xb1, 0xaf, 0x3d,
  0x58, 0xb7, 0x0b, 0xbc, 0x5a, 0x0b, 0xc6, 0x3c, 0x76, 0x38, 0xf3, 0x3d,
  0x96, 0x9f, 0x17, 0xbd, 0x88, 0x32, 0x6a, 0xbd, 0x3f, 0x00, 0x32, 0x3d,
  0x11, 0x32, 0xdd, 0xbc, 0x30, 0x91, 0x32, 0xbd, 0x25, 0xab, 0x3c, 0x3d,
  0x57, 0xed, 0xd0, 0x3d, 0xf7, 0x2c, 0x7f, 0x3e, 0xea, 0xdf, 0xff, 0xff,
  0x10, 0x00, 0x00, 0x00, 0x09, 0x00, 0x00, 0x00, 0x1c, 0x00, 0x00, 0x00,
  0x38, 0x00, 0x00, 0x00, 0x04, 0x00, 0x00, 0x00, 0x08, 0x00, 0x00, 0x00,
  0x04, 0x00, 0x00, 0x00, 0x03, 0x00, 0x00, 0x00, 0x01, 0x00, 0x00, 0x00,
  0x18, 0x00, 0x00, 0x00, 0x73, 0x65, 0x71, 0x75, 0x65, 0x6e, 0x74, 0x69,
  0x61, 0x6c, 0x2f, 0x63, 0x6f, 0x6e, 0x76, 0x32, 0x64, 0x2f, 0x43, 0x6f,
  0x6e, 0x76, 0x32, 0x44, 0x00, 0x00, 0x00, 0x00, 0x74, 0xdf, 0xff, 0xff,
  0x5e, 0xe0, 0xff, 0xff, 0x04, 0x00, 0x00, 0x00, 0x40, 0x01, 0x00, 0x00,
  0xdb, 0x9f, 0x5a, 0x3e, 0x22, 0x52, 0x58, 0xbe, 0x9c, 0xd8, 0xf2, 0xbe,
  0x3e, 0x85, 0x29, 0xbe, 0x94, 0xca, 0x83, 0xbe, 0xfc, 0xdb, 0x00, 0x3f,
  0x24, 0xab, 0xa2, 0x3e, 0xe3, 0xaf, 0x2d, 0xbe, 0x5e, 0xbd, 0x74, 0xbd,
  0xda, 0x5c, 0x2f, 0x3d, 0xb3, 0x6a, 0xa0, 0xbe, 0x61, 0x20, 0xf1, 0x3e,
  0xb8, 0x64, 0x11, 0x3e, 0x35, 0xa1, 0xc9, 0x3d, 0x17, 0x55, 0x68, 0x3e,
  0x90, 0xa9, 0x17, 0x3e, 0x87, 0xb3, 0x8a, 0x3e, 0x91, 0x39, 0xa4, 0x3e,
  0xfd, 0x9a, 0x04, 0xbe, 0x43, 0x80, 0x38, 0x3e, 0x01, 0x99, 0x54, 0xbe,
  0x47, 0x0f, 0x91, 0xbe, 0xe0, 0x87, 0x68, 0xbe, 0xb3, 0x2e, 0xbf, 0xbe,
  0x54, 0xae, 0xa8, 0x3d, 0x81, 0xe9, 0xe0, 0xbb, 0x0b, 0x3a, 0x17, 0xbe,
  0x6a, 0x31, 0xda, 0xbe, 0x26, 0x5b, 0x38, 0x3e, 0x2f, 0xec, 0xbf, 0xbe,
  0x14, 0xea, 0x8e, 0x3d, 0xcf, 0x6e, 0xd6, 0x3d, 0x2e, 0xd7, 0xf3, 0x3d,
  0x3a, 0xca, 0xfc, 0xbe, 0xd4, 0x25, 0xc2, 0x3e, 0xb2, 0x23, 0x6f, 0xbd,
  0xce, 0x4c, 0x45, 0x3e, 0xca, 0xdf, 0xab, 0x3e, 0x17, 0x22, 0x75, 0x3e,
  0xa1, 0x8d, 0x26, 0x3e, 0x41, 0x10, 0x27, 0x3e, 0x99, 0xc3, 0xfb, 0x3e,
  0xf8, 0x26, 0x5d, 0xbe, 0x65, 0x78, 0x56, 0x3d, 0xc2, 0xc1, 0xc4, 0x3e,
  0x21, 0xba, 0xbf, 0x3e, 0xab, 0xc6, 0xd9, 0xbe, 0x1f, 0xd7, 0x85, 0xbe,
  0x40, 0x8e, 0xb2, 0xbe, 0x18, 0x4f, 0x52, 0x3e, 0x96, 0xbc, 0x0b, 0xbe,
  0x1c, 0xba, 0x59, 0x3d, 0x5d, 0xf5, 0x48, 0xbe, 0x8b, 0xe3, 0xe2, 0x3e,
  0x85, 0xd6, 0xb3, 0xbe, 0x75, 0x79, 0xb0, 0xbe, 0xcf, 0x22, 0x52, 0x3d,
  0xbc, 0x2f, 0x2f, 0x3e, 0x61, 0x21, 0x5d, 0x3e, 0x33, 0x54, 0x1a, 0x3e,
  0x71, 0xde, 0xd1, 0x3e, 0xea, 0x2f, 0xa0, 0x3e, 0x56, 0xd9, 0x6f, 0x3d,
  0xe0, 0x23, 0xdb, 0x3b, 0x8b, 0xaa, 0xa4, 0x3e, 0xb1, 0x13, 0x24, 0x3e,
  0x01, 0x6f, 0xfc, 0xbd, 0x12, 0x7a, 0x2a, 0x3e, 0x5a, 0xaf, 0x45, 0x3e,
  0x9e, 0xf6, 0xd9, 0xbe, 0xc6, 0xdc, 0x4b, 0x3e, 0x2f, 0x2f, 0xc9, 0xbd,
  0x66, 0xcd, 0xbb, 0x3e, 0x43, 0xc8, 0xfe, 0xbd, 0x36, 0xa8, 0xe2, 0x3e,
  0x09, 0x44, 0x65, 0x3e, 0x15, 0x55, 0xc9, 0xbe, 0xad, 0x00, 0xee, 0x3e,
  0xc7, 0x28, 0xc3, 0x3d, 0x47, 0x67, 0x1d, 0x3e, 0x82, 0xe1, 0xff, 0xff,
  0x10, 0x00, 0x00, 0x00, 0x08, 0x00, 0x00, 0x00, 0x14, 0x00, 0x00, 0x00,
  0x30, 0x00, 0x00, 0x00, 0x02, 0x00, 0x00, 0x00, 0x05, 0x00, 0x00, 0x00,
  0x10, 0x00, 0x00, 0x00, 0x19, 0x00, 0x00, 0x00, 0x73, 0x65, 0x71, 0x75,
  0x65, 0x6e, 0x74, 0x69, 0x61, 0x6c, 0x2f, 0x64, 0x65, 0x6e, 0x73, 0x65,
  0x5f, 0x31, 0x2f, 0x4d, 0x61, 0x74, 0x4d, 0x75, 0x6c, 0x00, 0x00, 0x00,
  0x04, 0xe1, 0xff, 0xff, 0xee, 0xe1, 0xff, 0xff, 0x04, 0x00, 0x00, 0x00,
  0x00, 0x1c, 0x00, 0x00, 0xbb, 0x62, 0x92, 0xbe, 0xac, 0x2e, 0xea, 0x3c,
  0x8b, 0x83, 0xe4, 0x3c, 0xac, 0xa9, 0x09, 0xbe, 0x49, 0x38, 0x6b, 0x3d,
  0x3f, 0x5b, 0x27, 0x3e, 0x78, 0x04, 0x25, 0xbd, 0x4a, 0x58, 0x16, 0xbe,
  0x89, 0x92, 0x69, 0x3d, 0x15, 0x6a, 0x36, 0xbb, 0x2b, 0x09, 0x22, 0xbe,
  0x25, 0x4c, 0x9d, 0xbd, 0x45, 0xd4, 0xcd, 0xbd, 0x62, 0x36, 0xa1, 0x3d,
  0x89, 0xb3, 0x0f, 0x3e, 0x60, 0xc6, 0x6e, 0xbe, 0xfa, 0x14, 0x2d, 0xbe,
  0xb7, 0x49, 0x16, 0xbe, 0x78, 0x0a, 0x85, 0xbd, 0xf8, 0x33, 0xc1, 0xbd,
  0x1a, 0x49, 0x00, 0xbe, 0xd9, 0xba, 0x59, 0xbd, 0xdf, 0xea, 0x1d, 0x3d,
  0x0e, 0x20, 0x64, 0xbd, 0x58, 0xe4, 0xd8, 0x3d, 0x52, 0x2e, 0x97, 0xbd,
  0xb9, 0xf1, 0xcd, 0xbd, 0x43, 0xdc, 0x98, 0xbd, 0x6e, 0xe3, 0x2a, 0xbe,
  0xb1, 0xa4, 0x02, 0xbe, 0xda, 0x74, 0x13, 0xbd, 0x89, 0x0a, 0x8d, 0x3d,
  0x3b, 0xbe, 0x87, 0xbe, 0x5c, 0x36, 0x8c, 0xbd, 0x78, 0x9c, 0xcd, 0xbd,
  0xdb, 0x0b, 0x9e, 0xbd, 0x3e, 0xe2, 0x05, 0xbd, 0xff, 0x38, 0x05, 0x3c,
  0x4a, 0x70, 0x9c, 0x3d, 0x7f, 0x70, 0xaf, 0x3d, 0x0c, 0xfd, 0x86, 0xbe,
  0x99, 0x6e, 0x3a, 0xbe, 0x2e, 0xb8, 0x96, 0xbc, 0x2b, 0xb5, 0xd2, 0x3d,
  0x88, 0xc8, 0x0b, 0xbd, 0x76, 0xff, 0x26, 0x3e, 0x1f, 0x6f, 0x17, 0x3e,
  0xc9, 0x8b, 0xef, 0x3d, 0xa8, 0xc2, 0x82, 0xbe, 0x6f, 0x5b, 0x3e, 0xbe,
  0xdb, 0xce, 0x90, 0xbd, 0xb2, 0xde, 0x82, 0xbe, 0x58, 0x8f, 0x48, 0xbe,
  0xf6, 0x7b, 0x06, 0x3e, 0x92, 0xdf, 0x99, 0x3d, 0x33, 0x9f, 0x04, 0xbe,
  0x9a, 0xb4, 0x8c, 0xbe, 0x3b, 0x37, 0xd5, 0xbd, 0x86, 0x29, 0x7e, 0x3d,
  0x47, 0x19, 0xe5, 0x3b, 0x36, 0xbb, 0x53, 0x3d, 0x48, 0xb2, 0x07, 0x3e,
  0xba, 0xa8, 0x56, 0x3d, 0x42, 0x1b, 0x62, 0x3e, 0x73, 0x3a, 0x81, 0xbd,
  0x56, 0xab, 0x8c, 0x3e, 0x55, 0x89, 0x96, 0xbd, 0xa4, 0x28, 0x09, 0xbe,
  0xd2, 0x7e, 0x70, 0xbe, 0xa3, 0x55, 0x46, 0xbe, 0x61, 0x07, 0xa9, 0xbc,
  0xdf, 0x7f, 0x94, 0x3d, 0xa9, 0xa1, 0x43, 0xbc, 0x48, 0x2f, 0xe7, 0x3d,
  0xf9, 0x92, 0x72, 0x3d, 0xa8, 0xe4, 0xd3, 0x3d, 0x2f, 0x92, 0x08, 0xbd,
  0xbb, 0xae, 0xe6, 0xba, 0x08, 0x81, 0xac, 0x3d, 0xf8, 0x6b, 0x47, 0xbe,
  0x44, 0xc2, 0xd2, 0x3d, 0x88, 0x0a, 0x93, 0xb9, 0x37, 0x82, 0x8c, 0x3d,
  0xaf, 0x2f, 0x13, 0x3e, 0x21, 0x25, 0xaa, 0xbc, 0xa6, 0xd7, 0xe6, 0x3d,
  0x15, 0x78, 0x99, 0x3c, 0x70, 0xfd, 0x6b, 0xbd, 0x02, 0x27, 0xff, 0xbd,
  0xc6, 0x32, 0x22, 0xb8, 0x22, 0x8b, 0xc4, 0xbd, 0xdc, 0xca, 0xf7, 0xbc,
  0x60, 0x4e, 0x63, 0x3d, 0x68, 0xd4, 0x0d, 0x3e, 0x8a, 0x0d, 0x54, 0xbe,
  0xd1, 0xe0, 0xc0, 0x3c, 0x65, 0xe1, 0xfc, 0x3d, 0xe2, 0x52, 0xac, 0x3b,
  0xf1, 0x73, 0xe2, 0xbd, 0x58, 0x1f, 0xe5, 0x3d, 0xf4, 0x02, 0xfe, 0xbd,
  0xfe, 0xfb, 0x9d, 0x3d, 0x3e, 0xea, 0xfb, 0x3a, 0xac, 0x26, 0xda, 0xbd,
  0xa6, 0x00, 0xdf, 0xbd, 0xcf, 0x5a, 0x69, 0xbe, 0xd1, 0x75, 0x9f, 0x3c,
  0x66, 0x0b, 0x1b, 0xbe, 0xc9, 0x1f, 0x6a, 0xbe, 0x5b, 0x70, 0x13, 0xbe,
  0xbb, 0x53, 0xb1, 0xbd, 0x76, 0xdd, 0x6d, 0x3d, 0x8e, 0x42, 0x32, 0x3d,
  0x27, 0xf7, 0x37, 0xbe, 0x37, 0x8a, 0x03, 0x3e, 0x47, 0xa0, 0xd4, 0x3d,
  0xc0, 0xab, 0x07, 0x3d, 0xfe, 0x4f, 0x0e, 0xbd, 0x31, 0xeb, 0x57, 0x3e,
  0x0b, 0xeb, 0x80, 0xbd, 0x80, 0xe7, 0xac, 0x3d, 0x88, 0x67, 0x23, 0x3b,
  0x46, 0xe8, 0x6b, 0x3c, 0x8c, 0x2f, 0xbe, 0x3d, 0xaf, 0x5a, 0xd2, 0x3a,
  0x59, 0x3d, 0x84, 0xbd, 0xb1, 0x13, 0xaa, 0x3d, 0xd8, 0xaa, 0x9f, 0x3d,
  0x44, 0xf9, 0x90, 0xbd, 0x23, 0xea, 0x21, 0x3d, 0x5b, 0x06, 0x16, 0xbe,
  0x11, 0x58, 0xb6, 0x3c, 0x52, 0x84, 0x49, 0x3d, 0x04, 0x64, 0xca, 0xbb,
  0x8c, 0xad, 0x7c, 0xbc, 0xd1, 0x24, 0x4f, 0x3d, 0xa9, 0xc8, 0x69, 0x3c,
  0x36, 0x13, 0xca, 0x3d, 0x95, 0x5d, 0x19, 0xbd, 0x2d, 0x7f, 0x66, 0xbe,
  0xaf, 0x6b, 0x00, 0x3e, 0x75, 0x0c, 0x27, 0x3e, 0x63, 0x01, 0x71, 0x3c,
  0x16, 0x62, 0x1a, 0xbe, 0x0e, 0x68, 0x45, 0xbe, 0x72, 0x26, 0x24, 0xbe,
  0xa3, 0xf7, 0x27, 0xbe, 0x9d, 0xb8, 0x16, 0xbe, 0x89, 0x3a, 0x43, 0xbe,
  0xfb, 0xfa, 0x78, 0x3d, 0xa7, 0xaf, 0x8e, 0xbd, 0xb7, 0x67, 0x94, 0xbd,
  0xd9, 0xfb, 0x5b, 0xbd, 0xca, 0x30, 0x14, 0xbe, 0x23, 0x51, 0x39, 0xbd,
  0xfe, 0x83, 0x52, 0xbe, 0x38, 0x69, 0x3c, 0xbe, 0xfc, 0x0a, 0x88, 0x3d,
  0x3b, 0xf5, 0x5d, 0xbe, 0x5f, 0x3f, 0xf4, 0x3d, 0x2c, 0xc5, 0x5a, 0xbe,
  0xb4, 0x26, 0x51, 0xbe, 0x64, 0xbb, 0x70, 0xbe, 0xae, 0x54, 0x0e, 0xbd,
  0xb9, 0x75, 0xb9, 0xbd, 0x93, 0x19, 0xfb, 0x3c, 0x33, 0x3b, 0x3c, 0xbd,
  0x4f, 0xd0, 0x7e, 0xbe, 0x60, 0x1b, 0xf5, 0x3d, 0x60, 0x1d, 0x4a, 0xbe,
  0x5b, 0xf1, 0x9b, 0x3c, 0x2c, 0x86, 0x23, 0x3d, 0x27, 0xa6, 0x4f, 0x3e,
  0xa1, 0x12, 0x15, 0xbe, 0x06, 0x65, 0xa4, 0xbd, 0x11, 0xff, 0xe7, 0x3d,
  0xa2, 0x30, 0x89, 0xbe, 0x51, 0x72, 0x55, 0x3b, 0x3c, 0x38, 0x55, 0xbe,
  0xa8, 0x2c, 0x8f, 0xbd, 0x1b, 0x55, 0x0f, 0xbe, 0xfa, 0xd5, 0x24, 0xbe,
  0x00, 0xf1, 0x48, 0x3c, 0xc0, 0x03, 0xdf, 0x3b, 0x6b, 0xc4, 0x06, 0xbe,
  0x24, 0x43, 0xb2, 0xbd, 0x97, 0x45, 0x62, 0xbd, 0x24, 0x07, 0x08, 0x3e,
  0xfa, 0xb2, 0x9f, 0x39, 0x31, 0xba, 0xa9, 0x3d, 0x6f, 0xed, 0x4a, 0xbe,
  0x20, 0x91, 0x1d, 0x3e, 0x84, 0xfb, 0x93, 0xbe, 0xd3, 0xb2, 0x36, 0xbe,
  0x9a, 0x71, 0xd7, 0xbd, 0xde, 0xc8, 0x1c, 0xbe, 0x84, 0x64, 0x56, 0xbe,
  0x80, 0xc4, 0xce, 0xbc, 0x9c, 0xef, 0x55, 0xbb, 0xb2, 0xc0, 0x56, 0xbe,
  0x44, 0xf2, 0x47, 0xbe, 0xba, 0x0d, 0x2a, 0x3c, 0x60, 0x6d, 0xd5, 0x3d,
  0x54, 0x0a, 0xef, 0x3d, 0x68, 0xb5, 0xcc, 0xbd, 0x69, 0x41, 0x85, 0xbd,
  0xcf, 0x06, 0x64, 0xbe, 0xb4, 0xdf, 0xc3, 0x3d, 0xb1, 0x8f, 0x1c, 0xbe,
  0x9e, 0x28, 0x49, 0x3e, 0x1c, 0x1e, 0x9a, 0xbe, 0x8e, 0xaa, 0x77, 0xbe,
  0xd4, 0xf2, 0x5c, 0xbd, 0x8f, 0xc1, 0x9d, 0xbd, 0x7d, 0x0b, 0x4f, 0xbe,
  0xf8, 0xb0, 0x26, 0xbe, 0x92, 0x1e, 0xd5, 0xbc, 0xd3, 0x79, 0xdd, 0x3d,
  0xc5, 0x72, 0x70, 0x3e, 0x62, 0x1f, 0x7e, 0x3e, 0x1d, 0x65, 0x18, 0x3e,
  0x66, 0xa9, 0x1f, 0xbe, 0x98, 0x43, 0xff, 0x3b, 0x0f, 0xc1, 0x7f, 0x3c,
  0x82, 0xe9, 0xd2, 0x3c, 0xe2, 0x95, 0x30, 0xbe, 0xc3, 0xf8, 0xdc, 0xbd,
  0x60, 0x8e, 0x80, 0x3c, 0x89, 0x5a, 0x9b, 0xbd, 0x7d, 0x54, 0x97, 0x3c,
  0x48, 0x6a, 0x23, 0xbe, 0xdd, 0x44, 0xd5, 0x3d, 0x71, 0x90, 0x3e, 0x3c,
  0x90, 0xf6, 0x4b, 0xbd, 0xdb, 0x36, 0x99, 0xbd, 0xe3, 0xd1, 0xf8, 0xbd,
  0x6f, 0xab, 0x58, 0xbd, 0x9a, 0x3e, 0xe3, 0xbc, 0x5f, 0xab, 0x64, 0xbe,
  0x41, 0xe5, 0x14, 0x3e, 0x3c, 0xbe, 0x42, 0xbd, 0x5c, 0xb7, 0x32, 0xbe,
  0x8f, 0x25, 0x1d, 0xbe, 0x90, 0x53, 0x05, 0xbe, 0xd5, 0xc6, 0x4a, 0xbe,
  0x1d, 0x12, 0x5b, 0x3b, 0xd6, 0xe9, 0x4b, 0x3d, 0xfd, 0x71, 0x6e, 0xbe,
  0xc7, 0xdb, 0xe0, 0x3d, 0xbc, 0xa3, 0x88, 0xbd, 0xdb, 0x07, 0xbf, 0x3d,
  0x3f, 0x3e, 0x4a, 0xbd, 0x9f, 0xac, 0x03, 0xbe, 0x1f, 0x33, 0x50, 0xbd,
  0xc6, 0xfb, 0xee, 0x3d, 0xd2, 0x9f, 0x48, 0xbd, 0xeb, 0x9d, 0x56, 0xbe,
  0x41, 0x79, 0xd8, 0x3c, 0xab, 0x7f, 0xf4, 0x3b, 0x73, 0xf6, 0xd0, 0x3c,
  0x11, 0x4a, 0x0e, 0xbe, 0x47, 0xa8, 0x1c, 0xbe, 0x2b, 0x0c, 0xd3, 0xbc,
  0xbc, 0x4c, 0x1b, 0xbe, 0xad, 0xb6, 0x47, 0xbe, 0xf5, 0xda, 0xcb, 0x3d,
  0x35, 0x1f, 0x00, 0x3e, 0x47, 0x6d, 0x03, 0xbe, 0xd0, 0x22, 0x81, 0x3d,
  0x0c, 0xcd, 0x25, 0x3e, 0xe5, 0x36, 0x04, 0xbc, 0x1f, 0x37, 0xf7, 0x3a,
  0xb4, 0x4d, 0x8c, 0xbe, 0x9a, 0xcf, 0xbc, 0xbd, 0x9b, 0x8c, 0x12, 0x3d,
  0xf6, 0x34, 0x01, 0xbe, 0x65, 0x7e, 0x14, 0xbe, 0xea, 0xbe, 0x4c, 0xbd,
  0xd9, 0x04, 0x36, 0x3e, 0x8b, 0x0e, 0x84, 0xbe, 0xfb, 0x4d, 0xf2, 0x3c,
  0x54, 0xee, 0x0a, 0xbe, 0x03, 0x10, 0x54, 0x3d, 0x9d, 0x09, 0x90, 0xbe,
  0x6b, 0xbe, 0x1f, 0xbe, 0xb0, 0xe4, 0x6a, 0x3d, 0x53, 0x6a, 0xcd, 0x3d,
  0x04, 0x53, 0x35, 0xbe, 0xef, 0x6c, 0x96, 0xbe, 0x22, 0xac, 0x77, 0x3d,
  0xce, 0x64, 0x08, 0xbd, 0x02, 0xc5, 0x5d, 0xbe, 0x5d, 0x3a, 0x46, 0xbe,
  0x6f, 0xa8, 0xf6, 0x3d, 0xec, 0x63, 0x2d, 0xbd, 0x2d, 0xce, 0xf6, 0x3b,
  0xc4, 0x83, 0x54, 0xbe, 0x6f, 0x46, 0x1d, 0xbe, 0x8a, 0x1e, 0xa7, 0xbd,
  0x37, 0xe2, 0x70, 0xbd, 0x6c, 0x88, 0x18, 0x3c, 0x8f, 0xf8, 0x2e, 0x3e,
  0x14, 0x59, 0x7d, 0x3d, 0xb6, 0xf3, 0xa8, 0xbd, 0x37, 0x3e, 0xb4, 0x3c,
  0x1a, 0x94, 0x44, 0xbe, 0x46, 0xe4, 0x7c, 0x3d, 0x2b, 0x53, 0x17, 0x3d,
  0x34, 0x51, 0x38, 0xbe, 0x68, 0xea, 0x38, 0x3d, 0x7f, 0xc3, 0x04, 0x3e,
  0x07, 0x47, 0xaa, 0x3c, 0x83, 0xe1, 0xdb, 0xbd, 0x25, 0xe1, 0x83, 0x3b,
  0x96, 0xec, 0x8b, 0xbd, 0x86, 0x32, 0x95, 0xbd, 0xf3, 0xd2, 0xf1, 0xbc,
  0x5c, 0x88, 0xb4, 0xbd, 0x69, 0x45, 0x29, 0x3e, 0x6e, 0x62, 0x7e, 0xbe,
  0x4b, 0x56, 0x6c, 0x3d, 0x8a, 0xf9, 0x78, 0xbe, 0x35, 0xa5, 0xba, 0xbd,
  0x83, 0xa7, 0xd5, 0xbc, 0xbe, 0x07, 0xab, 0xbe, 0x7e, 0xed, 0xe2, 0xbd,
  0x31, 0x65, 0x24, 0x3d, 0xee, 0x2a, 0xc7, 0x3b, 0x67, 0x32, 0xad, 0x3d,
  0x50, 0x8a, 0x9d, 0xbd, 0xaf, 0x7e, 0x20, 0xbe, 0x46, 0x10, 0x90, 0xbd,
  0x38, 0xa9, 0x28, 0xbe, 0xdb, 0xf7, 0x80, 0xbd, 0x44, 0xf0, 0x3e, 0x3d,
  0x05, 0xf7, 0x65, 0xbd, 0xf1, 0xe0, 0x40, 0xbc, 0x0a, 0x53, 0xee, 0x3d,
  0x5f, 0xf6, 0x14, 0x3e, 0xa0, 0xbd, 0x04, 0xbd, 0xb6, 0xb6, 0x25, 0xbc,
  0x14, 0xcd, 0x10, 0x3e, 0x5b, 0x3c, 0x63, 0x3e, 0xc1, 0x3b, 0x1b, 0xbb,
  0xf3, 0x93, 0x7e, 0xbe, 0xce, 0x6e, 0x13, 0xbe, 0xe1, 0x7a, 0x01, 0x3d,
  0x85, 0x7a, 0xaf, 0x3d, 0x12, 0x91, 0x80, 0xbd, 0x9c, 0x2c, 0xda, 0xbd,
  0x57, 0xc6, 0xa3, 0xbc, 0x46, 0x1f, 0x69, 0x3e, 0x1c, 0xae, 0xea, 0xbd,
  0x03, 0x1d, 0x26, 0x3e, 0x14, 0x4a, 0xb5, 0x3b, 0xfe, 0x2c, 0x0d, 0xbe,
  0x92, 0x62, 0xd6, 0x3d, 0x4e, 0xb4, 0x08, 0x3e, 0x8c, 0x08, 0x74, 0xbd,
  0x04, 0x60, 0xae, 0x3d, 0xd4, 0x81, 0x53, 0x3d, 0xb3, 0x96, 0x17, 0x3e,
  0xb9, 0x8f, 0x06, 0xbe, 0xe0, 0x66, 0x05, 0xbe, 0x48, 0x60, 0x1f, 0x3e,
  0x2f, 0x52, 0xbd, 0x3c, 0x51, 0xfd, 0x66, 0x3d, 0xb8, 0x0a, 0x22, 0xbe,
  0x96, 0xaa, 0xfa, 0xbd, 0xb5, 0x2b, 0x12, 0xbe, 0x73, 0xb1, 0x4c, 0x3c,
  0xc2, 0x92, 0x54, 0xbe, 0x84, 0xa2, 0x77, 0xbd, 0x5f, 0xd5, 0x15, 0x3b,
  0xa1, 0xbc, 0x00, 0xbe, 0x57, 0x4c, 0x5a, 0xbd, 0x9f, 0x02, 0xa9, 0xbe,
  0x85, 0x08, 0xfe, 0xbd, 0x8b, 0xad, 0x35, 0x3e, 0x15, 0xf0, 0x19, 0x3e,
  0x0b, 0xc6, 0x93, 0xbe, 0x19, 0x51, 0x90, 0xbd, 0x1d, 0x00, 0xc0, 0x3c,
  0x0b, 0x1c, 0x13, 0x3e, 0x6f, 0x40, 0x0d, 0xbd, 0x8c, 0x90, 0xef, 0x3e,
  0xea, 0x36, 0x41, 0x3e, 0xd3, 0x0b, 0xe2, 0xbc, 0x93, 0x5d, 0xfd, 0x3c,
  0xa9, 0xfb, 0xe3, 0xbd, 0x1a, 0x31, 0x22, 0x3e, 0x0c, 0x7d, 0x43, 0x3e,
  0xde, 0x97, 0x8d, 0x3e, 0x2f, 0xac, 0xc4, 0x3e, 0x70, 0x6b, 0xee, 0xbd,
  0x3d, 0x7d, 0x04, 0x3d, 0x9f, 0xcb, 0x6b, 0xbe, 0xd3, 0xcf, 0x6a, 0x3d,
  0xa3, 0x54, 0xff, 0xbd, 0x59, 0xe0, 0x1b, 0x3e, 0x85, 0xbf, 0x3a, 0xbe,
  0xc8, 0xf6, 0xc1, 0x3c, 0x6c, 0xf7, 0x3e, 0xbd, 0xd4, 0x61, 0x21, 0xbe,
  0x20, 0xae, 0xde, 0xbc, 0x87, 0x7e, 0xa6, 0x3d, 0xf3, 0x6b, 0xf3, 0xbc,
  0xec, 0x53, 0x25, 0x3d, 0x5c, 0x95, 0x0f, 0xbe, 0x44, 0x03, 0xa3, 0x3b,
  0x4d, 0x90, 0xe1, 0xbb, 0x80, 0x62, 0xcb, 0x3d, 0x12, 0x03, 0x8a, 0x3d,
  0xe7, 0xcc, 0x55, 0xbe, 0xe0, 0x7a, 0x97, 0x3d, 0x5f, 0xac, 0x62, 0xbe,
  0xd8, 0x07, 0x04, 0xbe, 0xd8, 0x7c, 0xd6, 0xbd, 0x7b, 0xf0, 0x44, 0xbe,
  0x8f, 0xf4, 0x47, 0xbe, 0x31, 0x15, 0xa4, 0xbd, 0x0b, 0xed, 0x29, 0x3d,
  0xa2, 0xdd, 0x8f, 0xbe, 0xee, 0x1a, 0x1e, 0x3d, 0xf8, 0x76, 0x21, 0x3e,
  0xb8, 0x74, 0x65, 0xbe, 0xde, 0x43, 0x56, 0xbd, 0x03, 0xe8, 0x07, 0xbe,
  0xe9, 0x22, 0x80, 0xbd, 0xc7, 0x74, 0xd3, 0xbd, 0xa5, 0x40, 0x21, 0xbe,
  0x67, 0x18, 0x9c, 0x3d, 0xe0, 0xbf, 0xb3, 0xbd, 0x00, 0x02, 0xb1, 0xbc,
  0xcd, 0x9c, 0x00, 0xbe, 0x88, 0x4a, 0x1e, 0xbe, 0x96, 0xa5, 0x03, 0xbe,
  0xdc, 0x0a, 0x1d, 0xbe, 0x1d, 0x57, 0x80, 0xbe, 0x70, 0x8d, 0x23, 0xbe,
  0x87, 0xf7, 0xd9, 0xbe, 0xdd, 0x72, 0xb2, 0x3d, 0x4f, 0xa0, 0xb8, 0xbc,
  0x88, 0xe0, 0xd4, 0x3e, 0x13, 0x12, 0x83, 0xbe, 0xcb, 0x47, 0xcf, 0x3d,
  0x48, 0x25, 0x17, 0xbe, 0x14, 0x8e, 0x79, 0x3e, 0x5c, 0xa4, 0x38, 0xbe,
  0xfa, 0x98, 0x33, 0x3e, 0xf9, 0x57, 0x0a, 0x3e, 0x76, 0xb6, 0x3b, 0xbe,
  0xb0, 0xd6, 0xa3, 0xbd, 0xda, 0x54, 0xeb, 0x3d, 0x43, 0x9d, 0x81, 0x3d,
  0xf3, 0xc8, 0x3c, 0x3d, 0x1a, 0xfc, 0x74, 0xbe, 0x5e, 0x32, 0x29, 0xbe,
  0x0f, 0x72, 0x14, 0xbe, 0x33, 0xec, 0xc7, 0x3d, 0xb6, 0x36, 0x80, 0xbd,
  0x9e, 0x57, 0x34, 0x3e, 0xf1, 0x53, 0x04, 0xbe, 0xc9, 0xfd, 0x54, 0x3d,
  0x75, 0xe7, 0x41, 0xbc, 0x87, 0x7f, 0x52, 0xbe, 0x6a, 0xfd, 0x08, 0xbe,
  0x82, 0xbd, 0xaa, 0xbd, 0x21, 0xbb, 0xbf, 0xbd, 0xe7, 0x1b, 0xe1, 0xbd,
  0xe5, 0x07, 0xba, 0x3d, 0xcd, 0xff, 0xf5, 0xbd, 0x6a, 0x1d, 0x9d, 0x3c,
  0x15, 0xc3, 0x8c, 0xbd, 0x46, 0xd0, 0x67, 0xbd, 0x46, 0xd6, 0x28, 0xbe,
  0x90, 0x71, 0x77, 0xbe, 0xeb, 0x9e, 0x6e, 0x3d, 0xa3, 0x13, 0x32, 0xbe,
  0x0a, 0xcf, 0xc1, 0x3d, 0x21, 0x7d, 0x68, 0xbe, 0x70, 0x16, 0x24, 0xbd,
  0x11, 0xc5, 0xaa, 0x3d, 0x7b, 0x4e, 0xc5, 0xbd, 0xc9, 0x24, 0xc0, 0xbd,
  0x05, 0xad, 0x04, 0x3e, 0xb2, 0x5f, 0x83, 0xbc, 0x36, 0x6d, 0x17, 0x3e,
  0xd2, 0x97, 0x29, 0xbe, 0x98, 0x64, 0xa9, 0xbc, 0x10, 0x3a, 0xd9, 0x3b,
  0x1c, 0xf4, 0x84, 0x3a, 0x60, 0xf9, 0x7b, 0xbc, 0x16, 0x35, 0xf1, 0x3d,
  0x1a, 0xd8, 0x02, 0xbe, 0x15, 0x0b, 0xc2, 0x3d, 0x0a, 0xf9, 0x29, 0x3d,
  0xfc, 0x77, 0xf8, 0xbc, 0xe9, 0xc8, 0x35, 0xbe, 0x56, 0xc8, 0xd2, 0xbd,
  0x68, 0x46, 0x12, 0xbe, 0xd3, 0xea, 0x4b, 0xbd, 0x03, 0x70, 0x11, 0xbe,
  0x68, 0x3a, 0x2c, 0xbe, 0x7a, 0x83, 0x6d, 0xbe, 0x2c, 0xce, 0xf6, 0x3d,
  0x48, 0xe1, 0xcd, 0x3d, 0x3a, 0x50, 0xd4, 0xbd, 0xb0, 0x36, 0xc2, 0x3d,
  0x87, 0x1b, 0x39, 0x3c, 0xa1, 0xa5, 0x35, 0xbe, 0xd4, 0x6c, 0xd7, 0x3d,
  0x17, 0x64, 0x73, 0xbe, 0x88, 0x17, 0xc3, 0x3d, 0xea, 0x16, 0x0d, 0x3d,
  0x94, 0xd9, 0x99, 0xbd, 0x6a, 0x0b, 0xc6, 0xbd, 0xf3, 0x48, 0xad, 0x3d,
  0xb7, 0x48, 0x67, 0xbe, 0x6d, 0x11, 0x88, 0xbc, 0xb0, 0x4f, 0x55, 0xbd,
  0x13, 0x47, 0xab, 0x3d, 0x7c, 0x62, 0x08, 0x3c, 0xda, 0xe4, 0x56, 0xbe,
  0xf6, 0x74, 0xf4, 0xbd, 0xe4, 0x75, 0x06, 0xbd, 0xf7, 0x59, 0x1d, 0xbe,
  0xbf, 0xfc, 0x71, 0xbc, 0xa9, 0xc6, 0x9e, 0xbd, 0x84, 0xac, 0x14, 0xbb,
  0x88, 0xd1, 0x35, 0xbe, 0x8e, 0x8d, 0x24, 0xbe, 0x77, 0x92, 0x66, 0xbe,
  0x42, 0x2c, 0x16, 0xbd, 0xa2, 0x7f, 0x45, 0x3d, 0x93, 0xcd, 0x18, 0x3e,
  0x96, 0x5a, 0x42, 0x3c, 0xf8, 0xc4, 0x22, 0xbe, 0x74, 0xf7, 0xa7, 0x3d,
  0xc2, 0x0c, 0x5f, 0xbe, 0x34, 0xe3, 0x83, 0x3d, 0xe2, 0xa4, 0x3c, 0xbe,
  0x34, 0xb9, 0x9e, 0xbd, 0x0f, 0x37, 0xc0, 0xbd, 0xc4, 0x6a, 0xcf, 0xbd,
  0x96, 0x3c, 0x02, 0x3d, 0xd2, 0x82, 0x82, 0xbe, 0x40, 0x4d, 0x05, 0xbe,
  0xa1, 0x7c, 0x85, 0xbe, 0xa2, 0x00, 0x2b, 0x3e, 0x5b, 0x30, 0x02, 0xbe,
  0x84, 0x62, 0x22, 0xbd, 0x49, 0x71, 0x7a, 0x3d, 0x19, 0xc4, 0x0e, 0x3c,
  0x8b, 0x67, 0x11, 0xbe, 0x5e, 0x1c, 0x6d, 0xbe, 0xc5, 0x9c, 0x5c, 0x3e,
  0xc8, 0xd4, 0x03, 0x3e, 0x34, 0xfb, 0x10, 0xbd, 0x66, 0x04, 0x7c, 0x3d,
  0x66, 0xc4, 0xbf, 0xbd, 0xcb, 0xc9, 0x63, 0x3e, 0x4a, 0x80, 0x8d, 0xbd,
  0x1c, 0x8d, 0x9e, 0xbd, 0x47, 0x7a, 0x3a, 0xbd, 0xdf, 0x3c, 0x2f, 0x3e,
  0xc8, 0xcc, 0x12, 0xbe, 0x9e, 0xc7, 0x65, 0xbd, 0xd8, 0x33, 0x0d, 0x3e,
  0xf0, 0xcb, 0xa9, 0xbc, 0xcb, 0x08, 0x2d, 0xbc, 0xbb, 0x1e, 0x29, 0xbe,
  0x15, 0xaf, 0xaa, 0x3d, 0x98, 0x32, 0x68, 0xbe, 0x3a, 0x93, 0x06, 0x3e,
  0xcb, 0x22, 0x2d, 0xbe, 0xf1, 0xfc, 0xd6, 0xbd, 0x76, 0xb1, 0x48, 0xbe,
  0x64, 0x10, 0x14, 0xbc, 0xa9, 0x4c, 0x8e, 0x3d, 0x73, 0x5f, 0xdb, 0x3d,
  0x52, 0x1c, 0x3d, 0x3e, 0xc3, 0x2d, 0xe4, 0xbd, 0x6c, 0xb4, 0x32, 0xbc,
  0x7a, 0x14, 0x8d, 0xbd, 0x48, 0x7c, 0x37, 0x3d, 0xdb, 0xa9, 0xb6, 0x3d,
  0xb6, 0xd6, 0x12, 0xbe, 0xe5, 0xcd, 0xf1, 0xbd, 0x2d, 0xf2, 0x37, 0x3c,
  0xc3, 0x87, 0xc4, 0xbd, 0x55, 0x4a, 0x36, 0x3e, 0x2e, 0x02, 0x3a, 0x3d,
  0x85, 0x35, 0x1e, 0x3e, 0xdd, 0x61, 0xde, 0xbd, 0x09, 0xfd, 0x2e, 0x3e,
  0x39, 0xfe, 0x26, 0xbe, 0x38, 0x62, 0xa4, 0xbd, 0xd1, 0xaa, 0x2d, 0xbe,
  0xeb, 0x32, 0xa6, 0xbd, 0x5b, 0x67, 0x0a, 0x3e, 0xf3, 0x11, 0x7b, 0xbd,
  0xf3, 0xba, 0xe0, 0x3d, 0x3e, 0xa2, 0x23, 0xbd, 0xbe, 0xcb, 0x61, 0x3c,
  0xc2, 0x64, 0x57, 0x3e, 0xd8, 0xed, 0x0c, 0x3b, 0xa1, 0x04, 0x24, 0xbe,
  0xdf, 0xd6, 0x38, 0xbe, 0xdc, 0x39, 0xbf, 0xbc, 0xac, 0xc5, 0xe4, 0xbd,
  0x38, 0x98, 0xbf, 0x3d, 0x39, 0xa3, 0xc7, 0xbd, 0xb0, 0xe0, 0x3d, 0x3e,
  0xe8, 0x8d, 0x4b, 0x3d, 0x5e, 0x05, 0x41, 0xbe, 0x42, 0x64, 0xe9, 0xbc,
  0x7b, 0x75, 0xea, 0xbd, 0xea, 0x2d, 0x25, 0xbe, 0x41, 0x7d, 0x13, 0xbe,
  0xfd, 0x90, 0x5b, 0x3e, 0x60, 0x99, 0x1f, 0x3e, 0xf8, 0xe9, 0x41, 0x3d,
  0xc6, 0xfb, 0x6b, 0xbd, 0x6d, 0x14, 0x6f, 0x3d, 0xc6, 0x71, 0x6e, 0x3d,
  0x4c, 0x79, 0xb9, 0x3e, 0x80, 0x3c, 0xc4, 0x3d, 0x47, 0x05, 0xb6, 0x3d,
  0xaa, 0x3b, 0x7c, 0x3d, 0x95, 0xf8, 0x48, 0x3d, 0xd5, 0xe6, 0x48, 0x3c,
  0xcb, 0x7e, 0x5d, 0x3d, 0x22, 0x4d, 0x64, 0xbd, 0x4d, 0xc1, 0x14, 0x3e,
  0x1c, 0xe6, 0x28, 0x3d, 0x1e, 0x1b, 0xa6, 0xbc, 0x2f, 0x4d, 0x20, 0xbe,
  0x1d, 0xbc, 0x92, 0xbe, 0x5a, 0xf9, 0x11, 0x3d, 0x33, 0xd2, 0x36, 0xbe,
  0x5a, 0x6d, 0x51, 0x3d, 0xac, 0x9d, 0x08, 0xbe, 0x74, 0x43, 0x43, 0x3e,
  0x98, 0x6a, 0x33, 0xbb, 0x90, 0x2e, 0x00, 0xbd, 0x83, 0x6d, 0x0c, 0x3e,
  0x7a, 0x92, 0x82, 0x3e, 0x52, 0xac, 0x36, 0xbd, 0xd2, 0x9d, 0xf4, 0x3e,
  0x42, 0xcb, 0x88, 0x3e, 0xff, 0x73, 0x9f, 0xbd, 0x1d, 0x63, 0x0e, 0x3e,
  0xb3, 0x1e, 0x0f, 0x3e, 0xc3, 0x28, 0x64, 0x3e, 0x7b, 0xd0, 0x93, 0xbc,
  0xd2, 0xd9, 0x0f, 0xbd, 0x87, 0xe6, 0x33, 0x3e, 0x13, 0x8a, 0x0f, 0xbe,
  0x98, 0x9d, 0x2a, 0xbe, 0xe4, 0x6b, 0x57, 0xbe, 0x93, 0x90, 0x02, 0x3e,
  0xb4, 0xa0, 0x8c, 0xbe, 0x10, 0xb2, 0xf5, 0x3c, 0x36, 0x67, 0xa1, 0xbd,
  0xaf, 0x28, 0xda, 0x3e, 0xc4, 0xb9, 0x2b, 0xbe, 0x69, 0xbb, 0x6b, 0xbc,
  0xb9, 0x81, 0x57, 0xbe, 0x61, 0xe1, 0x9d, 0xbd, 0x5f, 0xd9, 0xd9, 0xbd,
  0xd6, 0xe1, 0x2f, 0xbe, 0x2f, 0x13, 0x21, 0xbe, 0x40, 0x7e, 0x01, 0xbe,
  0x83, 0x41, 0x30, 0xbc, 0x64, 0x8b, 0x91, 0x3d, 0xf7, 0x9e, 0x77, 0xbe,
  0x70, 0xf1, 0xc4, 0xbd, 0xf2, 0x71, 0x65, 0xbd, 0x23, 0xa5, 0x59, 0xbe,
  0x38, 0xd1, 0x02, 0x3b, 0xbb, 0xad, 0x0c, 0xbe, 0x3e, 0xe5, 0x0d, 0x3d,
  0x56, 0xef, 0xff, 0xbd, 0x1a, 0x4e, 0x0a, 0x3d, 0x0f, 0x7d, 0x6c, 0xbe,
  0x6f, 0x60, 0xcd, 0x3d, 0xf8, 0x47, 0x47, 0x3c, 0x4e, 0x60, 0x28, 0xbe,
  0xe0, 0x50, 0xe0, 0xbd, 0xa4, 0xca, 0x67, 0x3c, 0x2a, 0x9e, 0xb8, 0x3b,
  0x54, 0x30, 0x0e, 0xbe, 0xaf, 0x28, 0x2b, 0xbe, 0x48, 0xff, 0x4d, 0xbd,
  0xaf, 0x6f, 0x1a, 0x3d, 0xc9, 0x0e, 0xee, 0xbd, 0x19, 0xb0, 0x2b, 0xbc,
  0x80, 0x1e, 0x15, 0xbe, 0x5b, 0x10, 0xa7, 0x3d, 0xce, 0xe3, 0x2b, 0xbe,
  0xf2, 0x66, 0x19, 0x3e, 0x10, 0x15, 0xbd, 0xba, 0x46, 0xda, 0x89, 0x3d,
  0xe9, 0xd1, 0x95, 0xbe, 0x33, 0xaf, 0xe7, 0x3d, 0x12, 0x70, 0x35, 0xbe,
  0x33, 0x38, 0x5f, 0x3d, 0x57, 0x58, 0xbc, 0xbd, 0xf1, 0xb3, 0x18, 0x3e,
  0xe7, 0x92, 0x23, 0xbe, 0xdf, 0xa2, 0x2d, 0x3d, 0x9e, 0xc8, 0x80, 0x3c,
  0x34, 0x0e, 0xfa, 0x3d, 0xaa, 0x48, 0xb7, 0xbd, 0xbc, 0xea, 0x21, 0xbe,
  0x82, 0x19, 0x81, 0xbe, 0x21, 0x8c, 0x40, 0x3e, 0x46, 0x3c, 0x2e, 0xbe,
  0x96, 0x11, 0x62, 0xbe, 0xfd, 0xec, 0x29, 0xbe, 0xd1, 0x3b, 0x5a, 0xbe,
  0x7e, 0xbf, 0xcf, 0xbd, 0xf8, 0xcc, 0xb4, 0xbc, 0x6f, 0xa3, 0x0d, 0xbe,
  0x18, 0x9c, 0x25, 0x3e, 0x64, 0x94, 0x83, 0x3d, 0x01, 0x73, 0x7c, 0xbe,
  0x67, 0x2b, 0x07, 0x3d, 0x49, 0xc3, 0x80, 0xbd, 0xfd, 0x01, 0x4e, 0xbe,
  0xe4, 0x08, 0x7b, 0xbe, 0xb9, 0x51, 0xdc, 0xbc, 0x58, 0x32, 0x15, 0x3e,
  0x5e, 0x6e, 0x36, 0xbe, 0x3e, 0xe4, 0xfd, 0xbd, 0x3d, 0xaa, 0xa0, 0xbe,
  0xd8, 0x47, 0x2a, 0xbe, 0xb2, 0xe9, 0x5e, 0xbe, 0x7b, 0x54, 0x55, 0xbe,
  0xb4, 0xa5, 0x44, 0xbd, 0x0f, 0x22, 0x68, 0xbe, 0x59, 0x16, 0x4d, 0xbe,
  0x9e, 0x5b, 0xe1, 0x3c, 0xc5, 0xf6, 0x42, 0xbd, 0x44, 0x80, 0xb2, 0xbc,
  0xc3, 0x15, 0xad, 0xbd, 0x24, 0xe0, 0xd4, 0xbd, 0x40, 0x16, 0x0c, 0x3e,
  0x3d, 0xc6, 0x6b, 0xbe, 0xfa, 0x04, 0x77, 0x3d, 0x53, 0xbd, 0x84, 0xbd,
  0x06, 0xe3, 0xa8, 0xbe, 0x23, 0x09, 0x00, 0x3e, 0xec, 0x03, 0x74, 0xbd,
  0x6c, 0x10, 0x11, 0x3d, 0x9f, 0x6e, 0xbd, 0xbe, 0xd7, 0x48, 0x55, 0xbb,
  0x48, 0xe9, 0x5e, 0xbd, 0x5f, 0x63, 0x42, 0xbe, 0xb5, 0x59, 0xa4, 0x3d,
  0xdb, 0x06, 0x00, 0xbe, 0x36, 0xe3, 0xc4, 0xbd, 0x49, 0xa0, 0x2a, 0x3d,
  0x8e, 0x11, 0x53, 0xbe, 0x0c, 0x82, 0xf8, 0x3c, 0xa3, 0x79, 0xcf, 0xbc,
  0x04, 0xc3, 0x05, 0x3e, 0x64, 0x3d, 0x37, 0x3d, 0xc6, 0x4d, 0xe2, 0xbc,
  0x08, 0x42, 0xc1, 0x3c, 0x48, 0x6a, 0xe8, 0x3d, 0x62, 0x7a, 0xb0, 0xbe,
  0xae, 0x5c, 0x15, 0x3e, 0xd1, 0x4f, 0x33, 0xbe, 0xe1, 0x12, 0x86, 0xbe,
  0xb9, 0x6a, 0x69, 0x3d, 0xfb, 0x9b, 0x8e, 0x3d, 0xb8, 0x0b, 0xc5, 0x3d,
  0x3e, 0x0e, 0xc1, 0xbc, 0x54, 0x9b, 0xee, 0xbd, 0x1a, 0x91, 0xee, 0x3d,
  0x06, 0x64, 0x02, 0xbd, 0xfa, 0xc4, 0x22, 0xbd, 0xc2, 0xb5, 0xf7, 0xbd,
  0x58, 0x3b, 0x2c, 0x3e, 0x3d, 0x70, 0x86, 0x3c, 0x95, 0x4a, 0x8c, 0xbd,
  0xaa, 0xe0, 0x27, 0xbe, 0xfe, 0x18, 0x0a, 0x3e, 0x22, 0x04, 0x25, 0xbe,
  0x9f, 0xbc, 0x0d, 0x3e, 0x91, 0x55, 0xfc, 0xbb, 0x87, 0x5a, 0x35, 0xbe,
  0xbb, 0xbe, 0x0a, 0xbe, 0xcc, 0x91, 0x4f, 0x3d, 0x56, 0xce, 0x08, 0x3d,
  0x6e, 0x7b, 0x64, 0xbd, 0x9d, 0xd2, 0x2b, 0xbe, 0x7d, 0xae, 0x2a, 0xbe,
  0x32, 0x8c, 0x80, 0xbe, 0x9c, 0xba, 0x0c, 0x3e, 0x6d, 0x6d, 0x6c, 0xbe,
  0x00, 0x39, 0xea, 0xbd, 0x77, 0xa2, 0x8c, 0xbc, 0xf6, 0x9f, 0xad, 0xbd,
  0x50, 0x2a, 0xa7, 0xbd, 0x81, 0x2a, 0x0d, 0xbe, 0x76, 0xc1, 0x56, 0xbd,
  0xe8, 0xc8, 0x2a, 0xbe, 0x05, 0xe7, 0x93, 0xbd, 0xb6, 0xde, 0xc9, 0x3d,
  0xba, 0x29, 0x33, 0xbe, 0xf4, 0x26, 0xda, 0x3d, 0x7a, 0x2c, 0xc4, 0x3d,
  0xa5, 0x12, 0xb3, 0xbd, 0x84, 0xe0, 0xa8, 0xbe, 0x8e, 0xc6, 0xfb, 0x3d,
  0x8e, 0x4e, 0x2d, 0xbd, 0x08, 0xc9, 0x55, 0xbe, 0x4d, 0x33, 0x9c, 0xbe,
  0xc1, 0xc2, 0x41, 0x3e, 0xa8, 0x5f, 0xb3, 0x3d, 0xa7, 0xab, 0x01, 0x3d,
  0x47, 0xb5, 0x03, 0x3d, 0x5e, 0xd8, 0x94, 0x3c, 0xe2, 0x63, 0x0b, 0xbe,
  0x3f, 0x66, 0x10, 0xbd, 0xae, 0x45, 0xf4, 0x3c, 0x71, 0xf0, 0x52, 0xbe,
  0x8b, 0x6b, 0x27, 0xbe, 0x8b, 0x9b, 0xca, 0x3d, 0xc4, 0xbd, 0xdf, 0xbc,
  0x5a, 0xd6, 0xe0, 0x3d, 0x9e, 0x96, 0x0c, 0xbd, 0x11, 0x52, 0x11, 0x3d,
  0xfd, 0xe2, 0x8f, 0xbe, 0xd3, 0xd9, 0x8a, 0x3d, 0x21, 0xc1, 0xbb, 0x3c,
  0x14, 0x6b, 0xd3, 0xbd, 0x0a, 0x1c, 0x01, 0xbd, 0x01, 0xe8, 0xe1, 0xbb,
  0x98, 0x0a, 0x3b, 0xbe, 0xab, 0xa0, 0x83, 0x3d, 0x90, 0x19, 0x15, 0xbe,
  0x04, 0x31, 0xc5, 0x3d, 0xf1, 0xf2, 0x18, 0xbc, 0xd7, 0xac, 0x12, 0xbe,
  0x47, 0x33, 0x96, 0xbe, 0x0a, 0xab, 0x40, 0xbe, 0x78, 0x66, 0x68, 0x3d,
  0xd5, 0xb4, 0x35, 0xbe, 0x15, 0xfe, 0x4c, 0xbe, 0x8b, 0xfd, 0x00, 0xbe,
  0x00, 0x19, 0x12, 0x3d, 0xfb, 0x2d, 0x32, 0xbe, 0xfd, 0x19, 0xb8, 0x3d,
  0x89, 0xf9, 0x72, 0xbe, 0x94, 0xf1, 0x44, 0x3c, 0xcc, 0xcf, 0xb5, 0x3d,
  0x79, 0x2a, 0xa9, 0xbd, 0x1b, 0xdf, 0xab, 0x3c, 0xe9, 0x59, 0x4a, 0x3d,
  0xeb, 0x86, 0xa6, 0x3d, 0xc6, 0x65, 0x97, 0x3d, 0x47, 0xfe, 0xe5, 0xbd,
  0x0a, 0x92, 0xcc, 0x3d, 0x48, 0xec, 0x5f, 0xbe, 0x66, 0x4d, 0x42, 0xbe,
  0xde, 0x85, 0xce, 0xbc, 0x98, 0xc1, 0x79, 0xbd, 0x52, 0x82, 0xcb, 0x3d,
  0x14, 0xb2, 0x31, 0xbe, 0x90, 0x97, 0x0d, 0x3d, 0xda, 0xbe, 0xc4, 0xbb,
  0x32, 0xb8, 0xef, 0xbd, 0x2b, 0x1b, 0x3a, 0x3e, 0x4b, 0xd2, 0x5d, 0xbe,
  0x14, 0xd4, 0xdd, 0xbb, 0xfd, 0xae, 0x1a, 0x3e, 0x92, 0x59, 0xa9, 0x3d,
  0x2c, 0x5a, 0xe5, 0xbd, 0x24, 0x17, 0xa8, 0x3d, 0x8b, 0x42, 0x8b, 0x3d,
  0x6a, 0x98, 0x67, 0xbe, 0x4a, 0xe9, 0xcc, 0xbd, 0xad, 0xb7, 0x72, 0x3d,
  0x30, 0x14, 0x24, 0xbe, 0x6f, 0x07, 0x19, 0xbe, 0x0a, 0xc5, 0x94, 0xbe,
  0x08, 0x3d, 0x92, 0x3d, 0x2a, 0x3a, 0x5f, 0xbe, 0x12, 0x02, 0xaf, 0xbd,
  0xd6, 0xf7, 0x98, 0xbc, 0xec, 0x33, 0x75, 0xbe, 0x64, 0xbe, 0xe0, 0x3d,
  0x4a, 0x23, 0x09, 0xbd, 0x3c, 0xa0, 0x53, 0x3e, 0x68, 0xfa, 0x7e, 0xbe,
  0xc3, 0xf5, 0x57, 0xbd, 0x96, 0x8b, 0xc9, 0xbd, 0xdb, 0x5a, 0x53, 0xbe,
  0x90, 0xfe, 0x54, 0xbe, 0x97, 0x13, 0x52, 0x3d, 0x69, 0x6e, 0x59, 0xbe,
  0x58, 0xaa, 0x7b, 0xbe, 0x94, 0x2d, 0xa5, 0x3d, 0xeb, 0x4c, 0x35, 0xbd,
  0xce, 0xa5, 0x0e, 0xbe, 0xdc, 0x7f, 0xa7, 0x3d, 0xae, 0xc7, 0x46, 0x3d,
  0x55, 0x94, 0x17, 0xbe, 0xb5, 0x77, 0xcd, 0xbd, 0x81, 0xae, 0x17, 0x3e,
  0xad, 0x50, 0x50, 0xbe, 0x59, 0xe8, 0x84, 0xbd, 0x31, 0x5d, 0x33, 0x3d,
  0xbb, 0xbc, 0x3e, 0x3d, 0x47, 0xf8, 0x93, 0xbd, 0x6b, 0x94, 0xcc, 0xbc,
  0x42, 0x91, 0x66, 0xbe, 0xa2, 0xea, 0xac, 0x3c, 0x89, 0xd5, 0x33, 0x3e,
  0x7d, 0x1f, 0x48, 0xbe, 0xac, 0x1c, 0x8a, 0xbe, 0x9e, 0xe5, 0xf3, 0x3d,
  0x55, 0xce, 0xe0, 0xbd, 0x24, 0x3b, 0x09, 0xbe, 0xbc, 0xe4, 0x0d, 0xbe,
  0x19, 0x8b, 0x41, 0xbe, 0x0b, 0xd1, 0x4d, 0xbe, 0x64, 0x73, 0xc1, 0xbd,
  0xf9, 0xef, 0x77, 0xbe, 0x54, 0x53, 0xfe, 0xbc, 0x06, 0xf0, 0x97, 0x3d,
  0x68, 0x4e, 0xdd, 0x3d, 0x07, 0xf5, 0x49, 0xbe, 0xc9, 0x2d, 0xb6, 0xbd,
  0x5e, 0x43, 0x1f, 0x3e, 0x92, 0x0d, 0x25, 0x3d, 0xde, 0x20, 0xd1, 0x3d,
  0x98, 0xa8, 0x98, 0xbc, 0x85, 0x4e, 0xfc, 0xbd, 0x19, 0x11, 0x0e, 0xbe,
  0x08, 0x0d, 0x53, 0x3d, 0x9b, 0xc3, 0xe6, 0x3c, 0x6c, 0x1b, 0x1e, 0xbe,
  0xba, 0x5a, 0x29, 0x3d, 0x4e, 0x18, 0x82, 0xbd, 0xce, 0xbf, 0xbe, 0xbd,
  0x71, 0xa6, 0xdc, 0xbd, 0x22, 0x12, 0x8f, 0x3d, 0x6a, 0x59, 0xa6, 0x3d,
  0xd9, 0x34, 0x41, 0x3d, 0x36, 0xb7, 0x9a, 0x3b, 0x4c, 0x2b, 0xe3, 0xbd,
  0xfb, 0x72, 0x04, 0xbe, 0xd6, 0xcd, 0x1d, 0x3e, 0x0b, 0xf5, 0x37, 0xbe,
  0x1f, 0x57, 0x16, 0x3e, 0x6a, 0xba, 0xda, 0xbd, 0x01, 0x70, 0x57, 0xbe,
  0xa8, 0x8e, 0x41, 0x3d, 0x2a, 0xad, 0x4e, 0xbe, 0x3d, 0xe9, 0x2e, 0xbe,
  0x82, 0x74, 0x14, 0xbe, 0x9e, 0x96, 0x8c, 0xbd, 0xbd, 0x6e, 0x38, 0xbe,
  0x9f, 0x4c, 0x0e, 0xbe, 0xa2, 0xdb, 0x32, 0xbe, 0x43, 0xc7, 0x5e, 0x3e,
  0xc9, 0x46, 0x75, 0x3d, 0x39, 0x95, 0x48, 0xbd, 0xa2, 0x85, 0x71, 0xbd,
  0x13, 0xd6, 0x37, 0xbe, 0x93, 0xed, 0x12, 0xbe, 0x48, 0x39, 0xf4, 0xbd,
  0xae, 0x7c, 0xf5, 0x3d, 0xb5, 0xfc, 0x68, 0xbe, 0xf7, 0x67, 0x0c, 0xbe,
  0x8b, 0xaa, 0x5d, 0xbe, 0xdf, 0x5b, 0x1f, 0x3e, 0x8d, 0x73, 0x77, 0xbe,
  0xd8, 0x8b, 0x3b, 0xbe, 0xee, 0x8d, 0xb6, 0x3d, 0xad, 0x9c, 0x24, 0xbd,
  0xd8, 0x07, 0xc3, 0xbd, 0xf4, 0xa0, 0xb3, 0xbe, 0x69, 0x38, 0xae, 0x3d,
  0xd7, 0xea, 0x33, 0xbe, 0xe2, 0x20, 0x37, 0x3d, 0xf6, 0x3c, 0xb9, 0x3c,
  0x29, 0x20, 0x9e, 0xbd, 0x3b, 0x03, 0xb9, 0xbd, 0xca, 0x0d, 0x29, 0xbe,
  0x7c, 0x7f, 0x5d, 0xbe, 0x8a, 0xb5, 0x4b, 0xbe, 0xf6, 0x75, 0xd4, 0x3d,
  0x1b, 0x0a, 0x19, 0xbe, 0x23, 0x7c, 0xdb, 0xbd, 0xef, 0x33, 0xed, 0x3c,
  0x77, 0xa1, 0x82, 0xbe, 0x1a, 0x73, 0x9d, 0xbd, 0x6e, 0x1d, 0x76, 0xbd,
  0x1a, 0x5d, 0xb2, 0x3d, 0x77, 0x07, 0x32, 0xbe, 0x0f, 0x92, 0x56, 0x3d,
  0x1e, 0x0c, 0x0c, 0xbe, 0x88, 0xc0, 0x9a, 0xbe, 0xc6, 0xa2, 0xfb, 0x3d,
  0x6d, 0xdf, 0x98, 0x3d, 0x40, 0xeb, 0xbb, 0xbb, 0xeb, 0x20, 0xde, 0x3b,
  0xc8, 0x4b, 0xcf, 0x3d, 0x41, 0xbc, 0xee, 0x3d, 0x79, 0x87, 0xb7, 0x3d,
  0xea, 0x50, 0xf9, 0xbd, 0xfa, 0x73, 0x93, 0xbe, 0xb4, 0x43, 0x1b, 0x3e,
  0xb9, 0xa6, 0x04, 0xbe, 0xb3, 0x44, 0x12, 0x3e, 0x34, 0xd9, 0x78, 0xbc,
  0xc1, 0x7c, 0x1a, 0x3c, 0x38, 0x51, 0x87, 0xbd, 0xc6, 0xe8, 0x72, 0xbe,
  0xd2, 0x9d, 0x57, 0xbe, 0xcf, 0xc2, 0x1b, 0x3d, 0x0a, 0xc5, 0x0c, 0xbe,
  0x21, 0xef, 0x5b, 0xbd, 0xc3, 0xe6, 0xd0, 0x3d, 0xa6, 0x35, 0xe7, 0xbb,
  0x48, 0x04, 0x93, 0xbc, 0x94, 0x82, 0x1c, 0xbe, 0x2b, 0xa2, 0x48, 0xbd,
  0x61, 0x3a, 0x1c, 0xbb, 0x25, 0x7d, 0xd2, 0xbd, 0xbb, 0x23, 0xd6, 0xbc,
  0xb6, 0x3b, 0x01, 0x3d, 0x71, 0xb2, 0x24, 0xbe, 0x8a, 0xea, 0xb6, 0xbd,
  0xf5, 0x4a, 0x04, 0xbe, 0x1b, 0x3b, 0x59, 0x3d, 0x6e, 0xce, 0x34, 0xbe,
  0xb0, 0xe1, 0x7f, 0xbd, 0xc3, 0x70, 0x69, 0xbe, 0xf1, 0xb9, 0xae, 0x3b,
  0x84, 0xe2, 0x64, 0xbe, 0x88, 0x6d, 0xe7, 0x3d, 0xf6, 0x77, 0x2c, 0x3e,
  0x4d, 0xf4, 0x0c, 0xbe, 0x65, 0x54, 0xae, 0xbd, 0x02, 0x72, 0x72, 0x3d,
  0x84, 0x9b, 0x14, 0x37, 0x75, 0x40, 0xa1, 0x3d, 0xb6, 0xa0, 0xfe, 0x3d,
  0x5e, 0xcf, 0xce, 0xbd, 0xf7, 0xee, 0x06, 0xbe, 0x48, 0x6f, 0xc9, 0x3d,
  0x63, 0x2c, 0x5b, 0xbe, 0x98, 0x27, 0x0e, 0xbe, 0xb3, 0x09, 0x82, 0x3c,
  0x56, 0x8b, 0xbc, 0xbd, 0xcb, 0x0e, 0x45, 0x3e, 0xb3, 0x9c, 0xf8, 0xbd,
  0xf1, 0x84, 0xed, 0x3c, 0x86, 0xd6, 0x31, 0x3e, 0xbe, 0x5e, 0x16, 0x3d,
  0x12, 0xdd, 0xb4, 0xbd, 0x3d, 0xde, 0x01, 0xbb, 0x3d, 0xa1, 0x27, 0x3e,
  0x61, 0x05, 0x76, 0x3d, 0x3e, 0xdb, 0xcd, 0xbc, 0x15, 0xbe, 0xfb, 0xbd,
  0x98, 0x27, 0x10, 0x3e, 0x71, 0xa2, 0x87, 0xbe, 0x41, 0x1f, 0xaa, 0xbd,
  0x6b, 0x89, 0x27, 0xbe, 0xd3, 0xe2, 0x5c, 0xbd, 0x58, 0x3c, 0x5b, 0xbe,
  0xe1, 0xce, 0x17, 0xbe, 0x47, 0x88, 0xba, 0x3d, 0x4e, 0xb9, 0x2d, 0xbe,
  0xd3, 0xdd, 0x4d, 0xbe, 0x99, 0x1c, 0x6d, 0x3d, 0xaa, 0xcb, 0x18, 0xbd,
  0x0c, 0x28, 0x04, 0x3e, 0x37, 0x5d, 0x33, 0xbe, 0x6d, 0xe3, 0xe6, 0x3d,
  0xb3, 0x0e, 0xa3, 0x3d, 0x98, 0x7b, 0x35, 0x3d, 0x35, 0x98, 0x51, 0xbd,
  0x62, 0xc2, 0x31, 0xbe, 0xc6, 0xa0, 0x9b, 0xbe, 0x7e, 0x62, 0xdf, 0xbd,
  0x13, 0x67, 0xbf, 0x3d, 0xcc, 0x69, 0x5f, 0xbd, 0x49, 0x27, 0x3d, 0xbd,
  0xd6, 0xe6, 0x03, 0x3e, 0x65, 0x6b, 0x6e, 0x3d, 0xff, 0xb8, 0xaa, 0xbd,
  0xd1, 0x9a, 0x9a, 0x3d, 0x55, 0xad, 0x8e, 0xbd, 0x5c, 0x66, 0x2d, 0xbe,
  0x01, 0xbc, 0x39, 0x3e, 0x61, 0x37, 0xc6, 0xbc, 0xf3, 0xbd, 0xe0, 0x3d,
  0x34, 0x31, 0xa3, 0x3d, 0xe1, 0xa5, 0xdb, 0xbd, 0x1b, 0xf0, 0x02, 0xbe,
  0x5f, 0x0e, 0x09, 0x3e, 0x5a, 0xf1, 0xb4, 0xbd, 0xe3, 0xbc, 0x64, 0x3b,
  0x1f, 0xf0, 0x55, 0xbd, 0x7c, 0x57, 0x10, 0x3e, 0xe1, 0x79, 0x27, 0xbe,
  0x3a, 0x8c, 0x83, 0xbe, 0x26, 0x2c, 0x1d, 0x3e, 0xa0, 0x17, 0x15, 0x3e,
  0x2b, 0x39, 0xfc, 0x3d, 0x1a, 0x0d, 0x52, 0xbd, 0x42, 0x33, 0xf9, 0xbd,
  0x8a, 0x57, 0x98, 0x3d, 0xf8, 0xa9, 0x70, 0xbe, 0x0a, 0x6d, 0x42, 0xbe,
  0x3c, 0x34, 0x38, 0x3d, 0xb2, 0x49, 0x2f, 0x3e, 0x88, 0x61, 0xbc, 0xbd,
  0x72, 0x93, 0x76, 0xbe, 0xc5, 0x94, 0x41, 0xbe, 0xfc, 0x65, 0x1e, 0xbe,
  0xe9, 0xc6, 0x27, 0xbe, 0x56, 0x7b, 0x14, 0xbe, 0x74, 0xf8, 0x05, 0x3e,
  0xaa, 0x62, 0x1e, 0xbd, 0x6b, 0x68, 0x18, 0xbe, 0x0a, 0xec, 0x04, 0xbe,
  0x41, 0x50, 0x80, 0xbc, 0x6e, 0xbc, 0xb3, 0x3d, 0xad, 0x18, 0x35, 0xbb,
  0x19, 0xb5, 0x3f, 0xbe, 0xd9, 0x78, 0xd3, 0xbc, 0xe8, 0xb1, 0xfb, 0xbd,
  0x9d, 0xe3, 0xc6, 0xbd, 0x2a, 0xa1, 0x0f, 0x3d, 0x8e, 0xf1, 0x40, 0xbd,
  0x66, 0x89, 0xd9, 0xbc, 0x39, 0xa0, 0x00, 0xbe, 0x9b, 0x86, 0x76, 0xbd,
  0x82, 0xaf, 0xb1, 0xbd, 0xba, 0x49, 0x0f, 0x3e, 0xcd, 0xf9, 0xf0, 0xba,
  0xf5, 0x53, 0x01, 0x3d, 0xc4, 0xe5, 0xe8, 0xbd, 0x2c, 0xa8, 0xe7, 0x3d,
  0x3c, 0xea, 0x11, 0xbd, 0x07, 0x0a, 0x02, 0xbe, 0xbc, 0x48, 0x44, 0xbe,
  0xee, 0x03, 0xdc, 0xbd, 0x5b, 0x09, 0xd3, 0xbc, 0xfd, 0xbc, 0x58, 0xbe,
  0xd7, 0xbf, 0xbe, 0x3d, 0x70, 0xea, 0xc8, 0xbd, 0x5e, 0xa1, 0x41, 0x3e,
  0x89, 0x32, 0xbf, 0x3d, 0xa6, 0x55, 0xe7, 0x3d, 0x21, 0xe8, 0x15, 0x3e,
  0x40, 0xee, 0xb1, 0xbd, 0x26, 0xd6, 0x43, 0xbe, 0x82, 0x2b, 0xfd, 0xbd,
  0x1e, 0x14, 0xf1, 0x3d, 0x9e, 0xa3, 0xa6, 0x3d, 0x1d, 0x02, 0xb9, 0x3c,
  0xc7, 0x90, 0x13, 0xbe, 0x4e, 0xb4, 0x07, 0x3e, 0x21, 0x43, 0xf5, 0xbd,
  0x2f, 0x21, 0x80, 0x3d, 0xa6, 0xde, 0x2d, 0x3c, 0x40, 0x8a, 0xe6, 0xbd,
  0x34, 0x8e, 0xe9, 0xbc, 0x99, 0xef, 0x18, 0xbe, 0x5c, 0x8b, 0xa8, 0x3d,
  0x76, 0xe5, 0x40, 0x3e, 0xdb, 0x6b, 0x88, 0xbc, 0xa0, 0x31, 0x0a, 0xbc,
  0x1c, 0x2f, 0xdc, 0xbd, 0x74, 0xd8, 0x15, 0xbe, 0xc3, 0x67, 0x2c, 0xbe,
  0x20, 0x18, 0x90, 0xbd, 0xa7, 0xe2, 0xfb, 0xbd, 0x22, 0xeb, 0x34, 0xbe,
  0x65, 0x18, 0x0f, 0xbd, 0x81, 0x63, 0xe3, 0x3d, 0xe0, 0x0e, 0xfc, 0x3d,
  0x33, 0x6c, 0x71, 0x39, 0x8b, 0x75, 0x3e, 0xbe, 0x9a, 0xb1, 0x83, 0xbc,
  0xec, 0xa3, 0xe1, 0xbc, 0x2b, 0xc7, 0x05, 0x3e, 0x6d, 0x73, 0xf5, 0xbd,
  0x6c, 0x0b, 0xfb, 0x3d, 0x07, 0x08, 0x37, 0xbe, 0xfb, 0x57, 0xbc, 0x3d,
  0xe0, 0x95, 0xd6, 0xbd, 0x4c, 0x4b, 0x51, 0x3d, 0x25, 0x42, 0x69, 0xbe,
  0x89, 0xbe, 0xca, 0x3d, 0x9f, 0x87, 0x19, 0x3e, 0xcb, 0x98, 0x02, 0x3e,
  0xe8, 0x86, 0xe6, 0x3d, 0xe1, 0xcf, 0xdc, 0xbd, 0x0f, 0x31, 0x66, 0x3d,
  0x4b, 0x59, 0xfe, 0x3d, 0x51, 0x56, 0x2a, 0x3c, 0xe9, 0x01, 0x37, 0x3e,
  0xbf, 0x5e, 0x5d, 0xbe, 0x3a, 0x10, 0x2f, 0xbd, 0x15, 0x17, 0xb5, 0x3d,
  0xde, 0x51, 0xc4, 0xbd, 0xe9, 0x59, 0x36, 0x3d, 0x13, 0x84, 0x6b, 0x3d,
  0xbe, 0xc7, 0x61, 0xbe, 0x4f, 0x6b, 0x15, 0x3e, 0x8a, 0xb7, 0xc9, 0x3d,
  0x26, 0xb1, 0xed, 0x3d, 0x3b, 0x35, 0xa2, 0x3d, 0x7a, 0x72, 0x83, 0xbe,
  0x4c, 0x21, 0xb4, 0x3d, 0x9d, 0xb4, 0x1c, 0x3c, 0x42, 0xa5, 0x15, 0xbb,
  0x24, 0xf2, 0x1d, 0x3e, 0x7c, 0xe2, 0x40, 0xbe, 0x19, 0xef, 0xa6, 0xbd,
  0x3b, 0x79, 0xd9, 0xbc, 0x0c, 0xee, 0xf2, 0x3d, 0xa7, 0x9b, 0x2a, 0xbe,
  0xfb, 0x1e, 0xab, 0x3d, 0xdd, 0x43, 0xf9, 0xbd, 0x24, 0x50, 0x17, 0xbe,
  0x48, 0x30, 0xf6, 0xba, 0x8c, 0x1f, 0x1b, 0xbd, 0x41, 0xd5, 0x00, 0x3e,
  0xae, 0xd3, 0x05, 0xbe, 0xc6, 0x53, 0xe6, 0x3d, 0xba, 0xb4, 0x1d, 0xbe,
  0x63, 0xa2, 0xe1, 0x3c, 0x5f, 0x8e, 0x62, 0xbd, 0x2c, 0xb8, 0x13, 0xbe,
  0xb9, 0x4c, 0xd2, 0xbc, 0x8c, 0xc0, 0xcd, 0x3c, 0x3f, 0xe7, 0x75, 0xbe,
  0x24, 0xe3, 0xb3, 0x3d, 0xb9, 0xc2, 0x3e, 0xbe, 0xd2, 0xb4, 0x8c, 0x3d,
  0x31, 0x54, 0x0e, 0x3e, 0x20, 0xd6, 0x55, 0x3d, 0x58, 0x02, 0xff, 0xbd,
  0x2f, 0xae, 0xc7, 0xbd, 0x91, 0x86, 0xe3, 0xbd, 0x5d, 0x9b, 0x12, 0x3e,
  0xff, 0xcd, 0xb3, 0xbc, 0x5d, 0x9a, 0xfa, 0x3d, 0x23, 0x0c, 0x0d, 0x39,
  0x92, 0xc0, 0x2e, 0xbe, 0x7b, 0x53, 0xf2, 0x3d, 0x1a, 0x09, 0x9d, 0x3d,
  0x60, 0xfa, 0x8e, 0x3e, 0x97, 0xa5, 0x98, 0xbe, 0x1a, 0x15, 0x1f, 0x3d,
  0xd2, 0xfe, 0x6f, 0xbd, 0x94, 0x36, 0x17, 0x3e, 0x9d, 0xdf, 0xab, 0x3d,
  0xae, 0xb0, 0x4f, 0x3d, 0x16, 0xf5, 0xa9, 0x3d, 0x4d, 0x62, 0x90, 0x3e,
  0x67, 0x74, 0x0d, 0xbe, 0xcf, 0x9b, 0x4c, 0xbd, 0x04, 0x88, 0xbe, 0x3d,
  0xdb, 0x8b, 0x3c, 0xbe, 0x66, 0x89, 0xec, 0x3d, 0x4d, 0xd5, 0x16, 0xbe,
  0xc7, 0x15, 0x44, 0xbe, 0xab, 0x71, 0x66, 0xbd, 0x1b, 0x63, 0x39, 0xbe,
  0x79, 0xf3, 0x07, 0x3d, 0xd2, 0x11, 0x54, 0xbe, 0x51, 0xd9, 0xa2, 0x3d,
  0x87, 0xf0, 0xdb, 0xbd, 0x05, 0xa0, 0x06, 0xbe, 0xb9, 0x22, 0xbc, 0xbb,
  0xdf, 0xd0, 0xf1, 0xbd, 0xfe, 0xcc, 0xde, 0x3d, 0x3e, 0xbf, 0xa7, 0xbd,
  0xb5, 0x14, 0x0d, 0x3e, 0xdb, 0x81, 0x46, 0xbd, 0x5a, 0xd5, 0x21, 0x3e,
  0x15, 0x11, 0x20, 0xbe, 0x86, 0x84, 0x63, 0xbe, 0xe2, 0xc0, 0x7f, 0xbd,
  0x85, 0x14, 0x94, 0xbd, 0x90, 0x13, 0xb1, 0xbd, 0x6a, 0xb4, 0x38, 0xbe,
  0x65, 0x65, 0xbd, 0x3d, 0x62, 0x05, 0x03, 0xbe, 0x9b, 0xb7, 0x2d, 0xbd,
  0x71, 0xc4, 0x0e, 0xbe, 0x2e, 0xc6, 0xaa, 0x3d, 0x6c, 0xd2, 0xd4, 0x3d,
  0xdc, 0xc2, 0x59, 0x3e, 0xec, 0x6a, 0x14, 0xbe, 0xf6, 0xe9, 0x0a, 0x3e,
  0x71, 0x6c, 0x6f, 0x3d, 0xe9, 0x34, 0x13, 0xbe, 0xcb, 0x54, 0x99, 0xbe,
  0x16, 0x88, 0xd4, 0xbc, 0xed, 0xf9, 0x3a, 0xbe, 0x89, 0xdc, 0xe3, 0xbd,
  0xf3, 0xa0, 0xec, 0xbd, 0xc5, 0x6d, 0x8e, 0x3d, 0x13, 0x30, 0x74, 0xbe,
  0x92, 0xe5, 0x54, 0xbe, 0x1e, 0xe4, 0xb8, 0x3d, 0x3a, 0xd8, 0x8b, 0x3d,
  0x1d, 0x88, 0x5d, 0x3c, 0x78, 0x1d, 0x80, 0x3d, 0x6a, 0xc2, 0x10, 0xbe,
  0x61, 0x44, 0x36, 0x3e, 0xb4, 0x1b, 0x05, 0x3d, 0x9d, 0x18, 0x39, 0x3e,
  0xbd, 0xc4, 0x4c, 0xbe, 0x71, 0xef, 0xfa, 0x3d, 0xeb, 0xfe, 0x8f, 0xbe,
  0xad, 0x9d, 0xc5, 0x39, 0xdf, 0x23, 0xdd, 0xbd, 0x52, 0x2b, 0x40, 0xbe,
  0x54, 0x72, 0x91, 0xbe, 0x55, 0x3c, 0xe0, 0x3c, 0xbe, 0x0c, 0xa6, 0xbe,
  0x51, 0x00, 0xb3, 0x3e, 0x03, 0x8d, 0x16, 0xbd, 0xe1, 0xbf, 0x67, 0xbd,
  0x56, 0x05, 0x52, 0xbe, 0xff, 0x12, 0x65, 0xbe, 0xa5, 0xe7, 0x81, 0x3d,
  0xba, 0x30, 0x85, 0xbd, 0x19, 0x49, 0x94, 0xbd, 0xf5, 0xb4, 0x43, 0x3d,
  0xcd, 0x6a, 0x59, 0xbe, 0xa6, 0x50, 0x60, 0x3d, 0x3f, 0x80, 0xa7, 0xbd,
  0x5b, 0x1d, 0x0d, 0xbe, 0x8c, 0x5f, 0x66, 0xbe, 0x22, 0x06, 0x03, 0xbe,
  0xc3, 0x4e, 0x03, 0x3e, 0x79, 0xeb, 0x28, 0x3d, 0x18, 0x5d, 0x52, 0x3d,
  0x87, 0x0b, 0x90, 0x3d, 0x2a, 0xce, 0x56, 0xbd, 0xdf, 0x55, 0x34, 0x3d,
  0xbc, 0x64, 0x75, 0xbc, 0x7a, 0x23, 0x74, 0xbe, 0xb4, 0xc3, 0x56, 0xbd,
  0x2a, 0x50, 0xc2, 0xbc, 0xa6, 0x6e, 0x05, 0xbe, 0xe0, 0xad, 0xdd, 0x3d,
  0x88, 0x10, 0xd5, 0xbd, 0xd7, 0x28, 0x56, 0x3e, 0x9a, 0xab, 0x18, 0xbe,
  0xd2, 0x85, 0x67, 0xbe, 0xf5, 0x8c, 0xd9, 0xbd, 0x1d, 0xac, 0x77, 0x3c,
  0x85, 0x89, 0xc9, 0xbd, 0xcd, 0xb2, 0x67, 0xbe, 0x6d, 0x24, 0x44, 0xbe,
  0xd1, 0xf5, 0xaf, 0x3c, 0xe4, 0xd5, 0x84, 0xbe, 0xe7, 0xf1, 0xbf, 0x3c,
  0x3d, 0x81, 0x7a, 0x3d, 0xdd, 0x8d, 0x2b, 0x3e, 0x54, 0x17, 0xe3, 0xbc,
  0x16, 0xf1, 0xe9, 0x3b, 0x6c, 0x7e, 0x86, 0xbd, 0xee, 0xde, 0x23, 0x3e,
  0x51, 0x3c, 0x20, 0xbe, 0xe9, 0x90, 0xce, 0xbc, 0x9c, 0xec, 0x57, 0xbe,
  0x82, 0xf4, 0x5f, 0xbe, 0xa4, 0xa8, 0x22, 0x3e, 0x57, 0x3c, 0x71, 0xbe,
  0x16, 0xf1, 0xf6, 0xbd, 0x52, 0xc6, 0x01, 0xbc, 0x5f, 0x28, 0x60, 0xbe,
  0xb1, 0x8d, 0x7a, 0x3d, 0xd2, 0x99, 0x88, 0xbe, 0x56, 0xde, 0x99, 0x3d,
  0xad, 0x9a, 0x49, 0xbd, 0x6f, 0x52, 0xeb, 0xbd, 0xb9, 0xdd, 0xd4, 0x3c,
  0xa6, 0xaf, 0xfd, 0x3d, 0x2f, 0xfe, 0xe2, 0x3d, 0xe8, 0xf8, 0xde, 0xbd,
  0x48, 0xd4, 0x4d, 0xbe, 0x62, 0x43, 0x09, 0xbe, 0x51, 0xc9, 0x97, 0x3b,
  0x08, 0x07, 0xd9, 0xbd, 0xa8, 0x75, 0x04, 0xbe, 0x66, 0x38, 0xda, 0x3d,
  0x7b, 0xb0, 0x24, 0x3e, 0x59, 0x5d, 0x27, 0x3e, 0xa3, 0x84, 0xf8, 0xbd,
  0x81, 0x30, 0x8a, 0x3d, 0x69, 0xd7, 0x87, 0xbe, 0x8c, 0xa4, 0x88, 0xbe,
  0xd7, 0xd8, 0x06, 0xbe, 0xc6, 0xc2, 0x12, 0xbe, 0x8f, 0x8b, 0x35, 0xbe,
  0xf6, 0x2e, 0x18, 0xbe, 0x44, 0x16, 0x2c, 0x3e, 0xf2, 0xef, 0x5b, 0xbe,
  0xde, 0xd3, 0xb3, 0xbd, 0x5a, 0xf0, 0x9e, 0x3d, 0xa8, 0x0e, 0x19, 0xbe,
  0xa0, 0x43, 0x99, 0x3d, 0x90, 0x7b, 0x64, 0x3d, 0xae, 0x8d, 0x1b, 0x3e,
  0x84, 0x09, 0x98, 0x3c, 0x6b, 0x03, 0x85, 0xbe, 0x44, 0x79, 0xa1, 0x3d,
  0x61, 0x2f, 0xc6, 0x3d, 0xd3, 0x6b, 0xe9, 0xba, 0xae, 0xe1, 0x23, 0x3d,
  0xe3, 0x75, 0xbf, 0x3d, 0xa0, 0xf6, 0x87, 0x3c, 0xe7, 0x01, 0x03, 0x3d,
  0x3e, 0x7d, 0x3b, 0x3e, 0x96, 0xb1, 0x4d, 0x3e, 0x8b, 0x2f, 0x48, 0xbe,
  0x9d, 0xa3, 0x17, 0xbe, 0x19, 0x38, 0x2d, 0xbe, 0x2d, 0xf6, 0x2f, 0xbe,
  0x0d, 0xd6, 0x35, 0x3e, 0x09, 0xf6, 0x5e, 0xbe, 0x76, 0x55, 0xf7, 0xbc,
  0x6a, 0x51, 0x05, 0xbe, 0x0b, 0x1d, 0x7a, 0xbe, 0x51, 0xe9, 0x42, 0xbe,
  0x0f, 0x53, 0x90, 0x3c, 0xd0, 0x7f, 0xb2, 0xbd, 0x09, 0x2e, 0x0d, 0x3e,
  0x17, 0x54, 0x89, 0xbd, 0xbb, 0x15, 0xb7, 0xbc, 0x23, 0x83, 0x91, 0xbd,
  0x60, 0x3d, 0x67, 0xbd, 0x06, 0x47, 0x1d, 0x3e, 0x5a, 0x14, 0xc4, 0xbc,
  0x53, 0x02, 0x50, 0xbe, 0x5e, 0x34, 0x0c, 0x3e, 0x41, 0xa5, 0x86, 0xbc,
  0x2a, 0xbf, 0x9a, 0xbd, 0x65, 0x6b, 0xd4, 0xbd, 0xa7, 0x12, 0x69, 0x3d,
  0x01, 0xd4, 0x29, 0xbe, 0x43, 0x78, 0xc8, 0xbd, 0x96, 0x8a, 0x0c, 0x3e,
  0xdc, 0x3f, 0x82, 0xbc, 0xf8, 0x05, 0x60, 0xbe, 0xfb, 0xb7, 0x93, 0xbe,
  0xd6, 0x70, 0xdb, 0xbd, 0x98, 0x32, 0x7a, 0xbe, 0xdf, 0xa3, 0x00, 0xbd,
  0xb0, 0xe0, 0x06, 0x3e, 0x92, 0x35, 0x2d, 0xbe, 0x0b, 0xa1, 0xf4, 0xbb,
  0xbf, 0x27, 0x5c, 0xbe, 0x67, 0xaf, 0x09, 0x3d, 0x35, 0xfd, 0xba, 0x3d,
  0x2b, 0xb5, 0x1a, 0x3c, 0xa8, 0x90, 0x17, 0xbe, 0x19, 0x90, 0x6d, 0xbe,
  0xcc, 0xc9, 0x97, 0x3c, 0x5a, 0x93, 0xc9, 0xbd, 0x96, 0xed, 0x52, 0x3c,
  0xa1, 0xfa, 0xd3, 0xbc, 0x0e, 0x25, 0xa4, 0xb9, 0x64, 0x73, 0xa9, 0xbd,
  0x71, 0x87, 0x9b, 0x3d, 0xf5, 0xa0, 0x43, 0x3e, 0x0d, 0x1e, 0x5f, 0x3d,
  0x3e, 0xe0, 0xd1, 0x3b, 0x5e, 0x4f, 0x8e, 0xbe, 0x0f, 0x3c, 0xc8, 0xbd,
  0xcf, 0xb1, 0x1f, 0x3e, 0x6b, 0xb6, 0x03, 0xbe, 0xf1, 0x32, 0x72, 0x3c,
  0x8b, 0x3b, 0xcc, 0x3d, 0xbf, 0x49, 0x17, 0x3e, 0x48, 0x55, 0x1f, 0xbe,
  0xfd, 0xc5, 0x80, 0xbd, 0xe0, 0x67, 0x59, 0xbe, 0x42, 0x08, 0x40, 0xbd,
  0x16, 0xc0, 0x9c, 0xbe, 0x4a, 0xae, 0x4d, 0xbc, 0xf7, 0xa1, 0x64, 0x3c,
  0xa1, 0x44, 0x06, 0x3e, 0xad, 0xcb, 0x0a, 0x3d, 0x90, 0x67, 0x73, 0xbe,
  0xa7, 0x04, 0xed, 0x3c, 0x68, 0x6d, 0x41, 0x3c, 0xc0, 0xf9, 0xb5, 0xbd,
  0x1a, 0x7f, 0x3b, 0xbd, 0xc3, 0xd9, 0x3b, 0x3e, 0xa6, 0xee, 0xdf, 0x3d,
  0xfc, 0x73, 0x8d, 0xbe, 0x03, 0x4d, 0xcd, 0x3d, 0x6a, 0x69, 0x4d, 0xbe,
  0x79, 0xab, 0x3f, 0x3e, 0xfd, 0xed, 0x92, 0xbe, 0xaf, 0x86, 0x46, 0xbe,
  0xb1, 0x9f, 0x35, 0xbe, 0xbb, 0xef, 0x4e, 0xbe, 0x88, 0x27, 0xba, 0xbd,
  0x70, 0x7f, 0x5f, 0xbd, 0xb3, 0x5f, 0x3f, 0x3e, 0xda, 0x54, 0x3f, 0xbe,
  0x83, 0x90, 0x39, 0xbd, 0x04, 0x92, 0x0b, 0xbe, 0x82, 0x18, 0x6d, 0x3b,
  0xa8, 0x55, 0x36, 0xbc, 0x75, 0x78, 0xee, 0x3d, 0x70, 0xb1, 0x23, 0xbe,
  0x5d, 0x2d, 0x3e, 0xbd, 0xdd, 0x6d, 0x40, 0x3e, 0x6c, 0x0d, 0x29, 0xbe,
  0x93, 0x4f, 0xd2, 0xbd, 0x76, 0x6b, 0xcb, 0xbd, 0xd8, 0x06, 0x5e, 0x3d,
  0xc5, 0x35, 0x39, 0xbe, 0xd8, 0x61, 0x1e, 0xbd, 0x0e, 0xfb, 0x23, 0xbd,
  0x0a, 0xcc, 0x26, 0x3d, 0xed, 0x39, 0x23, 0xbd, 0x2d, 0x8c, 0xaa, 0xbb,
  0x6e, 0x1c, 0xb2, 0x3d, 0x22, 0x0a, 0xf5, 0x3d, 0xb1, 0x63, 0x42, 0xbe,
  0x76, 0x20, 0xcf, 0xbc, 0x6f, 0x57, 0x4a, 0xbd, 0x8e, 0x76, 0xa9, 0xbd,
  0x47, 0x18, 0xa4, 0x3d, 0xc6, 0xe0, 0x04, 0xbd, 0x7e, 0x4f, 0x0d, 0xbe,
  0x6c, 0x42, 0xf6, 0x3d, 0xd7, 0x54, 0x3b, 0xbe, 0x97, 0xc1, 0x4b, 0x3d,
  0xc9, 0xa7, 0xb8, 0xbd, 0xd3, 0x10, 0xe8, 0xbd, 0x75, 0xfa, 0xe4, 0xbd,
  0x4c, 0xb8, 0x8a, 0xbe, 0x9a, 0xd5, 0x47, 0x3e, 0x00, 0xab, 0x23, 0xbe,
  0x34, 0x89, 0x69, 0xbe, 0x91, 0xc7, 0x97, 0xbc, 0x98, 0xbc, 0x9a, 0xbe,
  0x38, 0x9b, 0x1d, 0x3e, 0xde, 0xb6, 0xb9, 0x3d, 0x2b, 0x2e, 0xd1, 0xbd,
  0xb8, 0xe9, 0x06, 0x3e, 0x41, 0xb4, 0x1d, 0x3e, 0xd2, 0x8d, 0x2c, 0x3d,
  0x4d, 0x7e, 0x37, 0xbd, 0xa4, 0x59, 0x20, 0x3e, 0x23, 0x82, 0xa8, 0xbc,
  0x5a, 0xdc, 0x43, 0x3d, 0xfa, 0xd3, 0x0d, 0xbe, 0xab, 0x2d, 0x34, 0xbe,
  0xf9, 0xa4, 0x17, 0xbe, 0xff, 0xff, 0x93, 0x3d, 0x0d, 0x06, 0x33, 0xbd,
  0xa6, 0xc5, 0x99, 0xbd, 0x11, 0x99, 0x1c, 0x3c, 0xf0, 0x32, 0x5d, 0xbe,
  0xe4, 0xb3, 0x0f, 0xbe, 0xe0, 0x58, 0x5e, 0xbe, 0x14, 0x65, 0x30, 0x3e,
  0x8c, 0x60, 0xee, 0xbd, 0x37, 0x49, 0x90, 0x3c, 0x02, 0xdc, 0x34, 0xbd,
  0xf8, 0x4d, 0xe6, 0x3b, 0xd1, 0xfa, 0x68, 0xbe, 0x13, 0x38, 0x34, 0x3d,
  0xfe, 0x9d, 0x0f, 0x3d, 0xa2, 0x1e, 0x2c, 0xbe, 0x44, 0xbb, 0x52, 0xbe,
  0x02, 0xab, 0xbc, 0xbd, 0x5b, 0x02, 0x20, 0xbe, 0x2a, 0x25, 0x00, 0xbe,
  0xb1, 0x41, 0x80, 0x3d, 0x51, 0xcb, 0x22, 0x3e, 0x51, 0x83, 0x0d, 0x3e,
  0xa6, 0x63, 0x76, 0xbe, 0x76, 0xc8, 0xd9, 0x3d, 0xcf, 0x1b, 0x5d, 0x3d,
  0xb7, 0x10, 0x29, 0x3e, 0x00, 0x03, 0x1f, 0xbe, 0x8c, 0x4c, 0xcc, 0x3d,
  0xf7, 0x32, 0x80, 0x3d, 0x35, 0x69, 0x4a, 0xbb, 0x40, 0x76, 0xd2, 0x3d,
  0x90, 0xce, 0x3e, 0x3e, 0x2f, 0x13, 0xa6, 0xbd, 0xf5, 0x83, 0x38, 0x3e,
  0xf1, 0xb3, 0xdb, 0x3d, 0xed, 0x19, 0x90, 0xbd, 0x54, 0xf3, 0x4b, 0xbc,
  0xd9, 0x66, 0x6a, 0x3c, 0x43, 0xff, 0x3c, 0xbc, 0x54, 0x07, 0x1b, 0x3d,
  0x27, 0x94, 0x71, 0xbe, 0xc2, 0x1b, 0xfd, 0x3d, 0xbf, 0x0b, 0x66, 0xbe,
  0xdd, 0x26, 0x3e, 0x3d, 0xaa, 0xed, 0x23, 0xbe, 0xc7, 0xb1, 0xa6, 0xbd,
  0xca, 0x51, 0x81, 0xbc, 0x28, 0x14, 0xc2, 0xbd, 0xa8, 0x9a, 0xa8, 0x3d,
  0x8b, 0xfd, 0x47, 0xbe, 0xc7, 0xca, 0x29, 0xbc, 0xfd, 0xf0, 0x22, 0xbe,
  0x76, 0x48, 0xfa, 0x3d, 0xa9, 0x84, 0x05, 0x3e, 0x7f, 0x6b, 0xdb, 0xbd,
  0x2e, 0x73, 0xca, 0xbd, 0xa5, 0x7a, 0xcd, 0x3d, 0xe4, 0xe7, 0x23, 0xbc,
  0x44, 0xb7, 0x9c, 0x3d, 0x06, 0xbb, 0x19, 0xbe, 0x69, 0x04, 0xc7, 0x3c,
  0x42, 0x19, 0x02, 0xbe, 0x0f, 0xf1, 0xc8, 0x3d, 0xd5, 0x89, 0x93, 0xbd,
  0xe0, 0x01, 0x8e, 0x3d, 0x24, 0x94, 0x8b, 0x3a, 0x93, 0xf5, 0x99, 0xbd,
  0xf9, 0xae, 0x49, 0x3e, 0x7d, 0xf0, 0x93, 0xbd, 0xab, 0x13, 0x36, 0xbe,
  0xde, 0x79, 0x87, 0xbe, 0xf0, 0x39, 0x4f, 0x3e, 0xef, 0xb9, 0x8c, 0xbe,
  0x34, 0xd5, 0xb2, 0x3d, 0xb5, 0x3f, 0xc6, 0xbe, 0xd9, 0x31, 0x8a, 0x3e,
  0x69, 0x6d, 0xd3, 0x3c, 0x8e, 0x66, 0x32, 0x3c, 0x11, 0x8c, 0x78, 0xbd,
  0xb7, 0x59, 0xde, 0xbd, 0x69, 0xc2, 0x53, 0xbd, 0xb4, 0xe5, 0x7d, 0x3e,
  0xc3, 0x95, 0xa5, 0x3d, 0x22, 0x1d, 0xef, 0x3d, 0xfd, 0x9e, 0x20, 0x3e,
  0x2e, 0xc2, 0x0f, 0x3e, 0xae, 0x83, 0x84, 0x3d, 0x58, 0x45, 0x92, 0xbd,
  0x30, 0x8a, 0xb4, 0xbe, 0xad, 0x1e, 0x64, 0x3e, 0xda, 0x65, 0x2f, 0xbe,
  0x91, 0x67, 0x88, 0xbe, 0xd3, 0x9d, 0x46, 0xbe, 0xeb, 0x24, 0x2c, 0xbe,
  0x81, 0x5d, 0x64, 0xbe, 0xdd, 0xb1, 0x03, 0xbd, 0xaa, 0xa2, 0x3d, 0xbe,
  0x29, 0xa3, 0xeb, 0x3e, 0xa8, 0xc3, 0x59, 0x3e, 0xac, 0x94, 0x93, 0x3e,
  0x31, 0x42, 0xa8, 0xbd, 0x2b, 0x41, 0x52, 0xbc, 0xeb, 0x31, 0x89, 0x3d,
  0x9e, 0x4e, 0xf7, 0x3c, 0x08, 0x59, 0x0f, 0xbe, 0xe8, 0x25, 0xc2, 0xbd,
  0xc2, 0x94, 0x51, 0xbd, 0x8f, 0x9f, 0xf5, 0xbd, 0xab, 0x39, 0x78, 0xbd,
  0xe1, 0x64, 0x5e, 0xbd, 0xbc, 0xcc, 0x65, 0x3c, 0x1f, 0x71, 0xf5, 0xbc,
  0x5b, 0x03, 0xbe, 0xbe, 0x40, 0x7f, 0x32, 0xbe, 0x42, 0x08, 0xd5, 0x3d,
  0x9f, 0x21, 0xf4, 0x3b, 0x30, 0x3c, 0x6f, 0xbe, 0x91, 0x86, 0x92, 0xbc,
  0x8a, 0x81, 0x18, 0xbe, 0x5b, 0xec, 0x20, 0x3e, 0x19, 0x62, 0x1c, 0xbd,
  0x1d, 0x10, 0x1a, 0x3d, 0xd1, 0x5e, 0x22, 0x3d, 0x57, 0x31, 0xfd, 0xbd,
  0xff, 0x90, 0xe7, 0x3d, 0xc6, 0xc2, 0x8b, 0x3d, 0xdd, 0x0b, 0x2e, 0x3d,
  0x20, 0x64, 0x9e, 0xbc, 0xfc, 0x94, 0x20, 0xbe, 0x21, 0x94, 0xc3, 0x3d,
  0x3c, 0xd5, 0xb4, 0xbd, 0xf1, 0xc4, 0xea, 0x3d, 0xdb, 0x58, 0x31, 0xbe,
  0x8c, 0xb3, 0x06, 0xbe, 0xd6, 0xff, 0x20, 0xbd, 0x40, 0x74, 0x13, 0x3e,
  0xf4, 0x0b, 0x22, 0xbd, 0x51, 0x80, 0x98, 0x3d, 0x3f, 0x89, 0x7c, 0xbd,
  0x67, 0x04, 0x45, 0x3d, 0x98, 0x14, 0x2b, 0xbc, 0x03, 0x61, 0x4e, 0xbd,
  0xe6, 0x0c, 0xa8, 0x3d, 0xd5, 0xf6, 0x4d, 0x3e, 0x7a, 0xb6, 0x04, 0xbe,
  0x2e, 0xc1, 0x5a, 0x3e, 0x02, 0x68, 0xb5, 0xbd, 0x6d, 0x5e, 0xfd, 0x3d,
  0x2d, 0xd3, 0xf6, 0x3d, 0x53, 0x10, 0x53, 0xbd, 0x2c, 0xfa, 0x68, 0x3e,
  0xa4, 0xdd, 0x83, 0xbb, 0x6a, 0xdb, 0xb3, 0xbd, 0xfa, 0x03, 0x3d, 0xbe,
  0xb1, 0x2f, 0x24, 0xbd, 0xbc, 0x40, 0x29, 0xbe, 0x43, 0x5b, 0xad, 0xbb,
  0xb8, 0x37, 0x41, 0x3e, 0xa5, 0x4a, 0x5b, 0xbd, 0x63, 0x2a, 0xfa, 0xbd,
  0x4e, 0x8a, 0xd4, 0xbd, 0x27, 0xac, 0x4c, 0xbe, 0x18, 0x5f, 0x39, 0x3e,
  0x15, 0x67, 0x6d, 0x3c, 0x73, 0xc0, 0x4c, 0xbe, 0xbd, 0xb2, 0xb2, 0x3d,
  0x1b, 0xe5, 0x52, 0xbd, 0x4f, 0x85, 0x13, 0x3e, 0xc1, 0x0a, 0xab, 0x3c,
  0xaf, 0x0e, 0xa1, 0x3d, 0x2c, 0xa6, 0x8a, 0x3d, 0xe8, 0x08, 0x99, 0xbd,
  0xed, 0x4e, 0xea, 0xbc, 0x4a, 0x2a, 0xd0, 0x3d, 0x38, 0x8f, 0xb0, 0x3d,
  0x69, 0xc2, 0x80, 0x3d, 0xe6, 0x63, 0x39, 0xbe, 0xef, 0x49, 0xcf, 0x3d,
  0x2d, 0xd4, 0x7d, 0xbd, 0xe6, 0x68, 0x7d, 0x3e, 0x05, 0xd1, 0x48, 0xbd,
  0x55, 0x31, 0x9d, 0xbd, 0x81, 0x8d, 0xc9, 0x3c, 0x83, 0xfa, 0x1f, 0xbe,
  0x7f, 0x26, 0x36, 0xbc, 0x9c, 0x60, 0xf3, 0xbc, 0x35, 0x19, 0xc7, 0x3d,
  0xf4, 0x1f, 0x14, 0xbc, 0x21, 0xe9, 0x2f, 0x3e, 0x20, 0x8f, 0x50, 0xbd,
  0x50, 0xb6, 0xdb, 0xbd, 0xdc, 0x0c, 0x18, 0xbc, 0x91, 0xaa, 0xa7, 0x3c,
  0x66, 0xdc, 0x1b, 0x3d, 0x0d, 0x04, 0xa3, 0xbd, 0x85, 0xed, 0x0e, 0xbe,
  0x55, 0xb7, 0x7c, 0x3e, 0x0c, 0x28, 0x23, 0x3e, 0x96, 0x69, 0x93, 0xbd,
  0x98, 0xcf, 0x5d, 0xbe, 0xb1, 0x75, 0xa4, 0x3c, 0x3c, 0x89, 0x2e, 0xbe,
  0x8d, 0xdc, 0xb9, 0x3d, 0x0e, 0x6e, 0x24, 0xbc, 0x75, 0x1a, 0xd1, 0xbd,
  0xa8, 0x0d, 0x43, 0x3e, 0xb1, 0x47, 0xd9, 0xbd, 0xdb, 0x43, 0xf9, 0x3d,
  0xba, 0x3c, 0xc1, 0xbd, 0xc6, 0x85, 0x71, 0xbe, 0xf6, 0x55, 0x31, 0xbe,
  0x2a, 0x67, 0x52, 0xbe, 0xaa, 0x36, 0x90, 0xbd, 0xeb, 0xbe, 0x66, 0xbd,
  0xb2, 0x4d, 0x85, 0xbd, 0x3e, 0xaf, 0x8e, 0xbe, 0xd2, 0xfd, 0xff, 0xff,
  0x10, 0x00, 0x00, 0x00, 0x07, 0x00, 0x00, 0x00, 0x14, 0x00, 0x00, 0x00,
  0x2c, 0x00, 0x00, 0x00, 0x02, 0x00, 0x00, 0x00, 0x10, 0x00, 0x00, 0x00,
  0x70, 0x00, 0x00, 0x00, 0x17, 0x00, 0x00, 0x00, 0x73, 0x65, 0x71, 0x75,
  0x65, 0x6e, 0x74, 0x69, 0x61, 0x6c, 0x2f, 0x64, 0x65, 0x6e, 0x73, 0x65,
  0x2f, 0x4d, 0x61, 0x74, 0x4d, 0x75, 0x6c, 0x00, 0x50, 0xfd, 0xff, 0xff,
  0x3a, 0xfe, 0xff, 0xff, 0x04, 0x00, 0x00, 0x00, 0x08, 0x00, 0x00, 0x00,
  0xff, 0xff, 0xff, 0xff, 0x70, 0x00, 0x00, 0x00, 0x00, 0x00, 0x0e, 0x00,
  0x18, 0x00, 0x08, 0x00, 0x07, 0x00, 0x0c, 0x00, 0x10, 0x00, 0x14, 0x00,
  0x0e, 0x00, 0x00, 0x00, 0x00, 0x00, 0x00, 0x02, 0x10, 0x00, 0x00, 0x00,
  0x06, 0x00, 0x00, 0x00, 0x10, 0x00, 0x00, 0x00, 0x2c, 0x00, 0x00, 0x00,
  0x01, 0x00, 0x00, 0x00, 0x02, 0x00, 0x00, 0x00, 0x18, 0x00, 0x00, 0x00,
  0x73, 0x65, 0x71, 0x75, 0x65, 0x6e, 0x74, 0x69, 0x61, 0x6c, 0x2f, 0x66,
  0x6c, 0x61, 0x74, 0x74, 0x65, 0x6e, 0x2f, 0x43, 0x6f, 0x6e, 0x73, 0x74,
  0x00, 0x00, 0x00, 0x00, 0xb8, 0xfd, 0xff, 0xff, 0xa2, 0xfe, 0xff, 0xff,
  0x04, 0x00, 0x00, 0x00, 0x20, 0x00, 0x00, 0x00, 0x0e, 0xf3, 0xe8, 0xbe,
  0x11, 0x63, 0x0b, 0xbf, 0xc4, 0xec, 0x43, 0xbf, 0xe0, 0x98, 0x8f, 0xbe,
  0xc7, 0x4a, 0x32, 0xbf, 0xcf, 0xa3, 0x53, 0xbe, 0x0b, 0xb7, 0x82, 0x3d,
  0x6b, 0x85, 0xb7, 0xbe, 0xa6, 0xfe, 0xff, 0xff, 0x10, 0x00, 0x00, 0x00,
  0x05, 0x00, 0x00, 0x00, 0x10, 0x00, 0x00, 0x00, 0x1c, 0x00, 0x00, 0x00,
  0x01, 0x00, 0x00, 0x00, 0x08, 0x00, 0x00, 0x00, 0x0b, 0x00, 0x00, 0x00,
  0x63, 0x6f, 0x6e, 0x76, 0x32, 0x64, 0x2f, 0x62, 0x69, 0x61, 0x73, 0x00,
  0x14, 0xfe, 0xff, 0xff, 0xfe, 0xfe, 0xff, 0xff, 0x04, 0x00, 0x00, 0x00,
  0x40, 0x00, 0x00, 0x00, 0xf9, 0x82, 0xaa, 0xbe, 0x7b, 0x51, 0x37, 0xbe,
  0x41, 0x0e, 0x1d, 0xbe, 0xe6, 0x74, 0xc0, 0xbe, 0x71, 0xc6, 0xa1, 0xbd,
  0xa3, 0xd3, 0x8c, 0xbd, 0x8a, 0xd6, 0x47, 0xbe, 0xd5, 0x03, 0x0a, 0xbe,
  0xaf, 0x3d, 0x84, 0xbe, 0x1d, 0x85, 0xa0, 0xbd, 0x19, 0x28, 0x66, 0xbd,
  0x33, 0xcb, 0x23, 0x3e, 0xd8, 0xe1, 0xe0, 0xbc, 0x50, 0x2c, 0xf4, 0xbd,
  0x24, 0xff, 0x8f, 0xbe, 0xaf, 0x58, 0xdf, 0x3d, 0x22, 0xff, 0xff, 0xff,
  0x10, 0x00, 0x00, 0x00, 0x04, 0x00, 0x00, 0x00, 0x10, 0x00, 0x00, 0x00,
  0x20, 0x00, 0x00, 0x00, 0x01, 0x00, 0x00, 0x00, 0x10, 0x00, 0x00, 0x00,
  0x0d, 0x00, 0x00, 0x00, 0x63, 0x6f, 0x6e, 0x76, 0x32, 0x64, 0x5f, 0x31,
  0x2f, 0x62, 0x69, 0x61, 0x73, 0x00, 0x00, 0x00, 0x94, 0xfe, 0xff, 0xff,
  0x7e, 0xff, 0xff, 0xff, 0x04, 0x00, 0x00, 0x00, 0x40, 0x00, 0x00, 0x00,
  0xbd, 0x53, 0xf9, 0xbd, 0x28, 0x05, 0x96, 0xbc, 0x91, 0x94, 0xd1, 0xbd,
  0x53, 0xe8, 0x55, 0x3e, 0x55, 0x55, 0x9a, 0xbd, 0x8e, 0xa1, 0x2a, 0xbd,
  0x36, 0x96, 0x07, 0xbe, 0xcf, 0x04, 0xe2, 0xbd, 0x7b, 0xdd, 0x16, 0xbe,
  0x68, 0x5e, 0x09, 0xbe, 0x6d, 0x38, 0x90, 0xbd, 0x0a, 0x82, 0x51, 0xbd,
  0xbe, 0x34, 0xc6, 0xbd, 0xef, 0x35, 0xa1, 0xbd, 0xbb, 0xee, 0x04, 0xbc,
  0xef, 0x29, 0x6f, 0x3e, 0xa2, 0xff, 0xff, 0xff, 0x10, 0x00, 0x00, 0x00,
  0x03, 0x00, 0x00, 0x00, 0x10, 0x00, 0x00, 0x00, 0x20, 0x00, 0x00, 0x00,
  0x01, 0x00, 0x00, 0x00, 0x10, 0x00, 0x00, 0x00, 0x0a, 0x00, 0x00, 0x00,
  0x64, 0x65, 0x6e, 0x73, 0x65, 0x2f, 0x62, 0x69, 0x61, 0x73, 0x00, 0x00,
  0x04, 0x00, 0x06, 0x00, 0x04, 0x00, 0x00, 0x00, 0x00, 0x00, 0x06, 0x00,
  0x08, 0x00, 0x04, 0x00, 0x06, 0x00, 0x00, 0x00, 0x04, 0x00, 0x00, 0x00,
  0x14, 0x00, 0x00, 0x00, 0xc5, 0x24, 0x90, 0xc0, 0xbf, 0x45, 0xfe, 0xbf,
  0x3f, 0xaa, 0x9a, 0x3f, 0x2f, 0xa2, 0x98, 0x3f, 0xb6, 0x86, 0xbc, 0xbf,
  0x00, 0x00, 0x0e, 0x00, 0x14, 0x00, 0x04, 0x00, 0x00, 0x00, 0x08, 0x00,
  0x0c, 0x00, 0x10, 0x00, 0x0e, 0x00, 0x00, 0x00, 0x10, 0x00, 0x00, 0x00,
  0x02, 0x00, 0x00, 0x00, 0x10, 0x00, 0x00, 0x00, 0x20, 0x00, 0x00, 0x00,
  0x01, 0x00, 0x00, 0x00, 0x05, 0x00, 0x00, 0x00, 0x0c, 0x00, 0x00, 0x00,
  0x64, 0x65, 0x6e, 0x73, 0x65, 0x5f, 0x31, 0x2f, 0x62, 0x69, 0x61, 0x73,
  0x00, 0x00, 0x00, 0x00, 0x80, 0xff, 0xff, 0xff, 0x14, 0x00, 0x18, 0x00,
  0x04, 0x00, 0x00, 0x00, 0x08, 0x00, 0x0c, 0x00, 0x10, 0x00, 0x00, 0x00,
  0x00, 0x00, 0x14, 0x00, 0x14, 0x00, 0x00, 0x00, 0x14, 0x00, 0x00, 0x00,
  0x01, 0x00, 0x00, 0x00, 0x20, 0x00, 0x00, 0x00, 0x54, 0x00, 0x00, 0x00,
  0x3c, 0x00, 0x00, 0x00, 0x04, 0x00, 0x00, 0x00, 0x01, 0x00, 0x00, 0x00,
  0x40, 0x00, 0x00, 0x00, 0x03, 0x00, 0x00, 0x00, 0x01, 0x00, 0x00, 0x00,
  0x1e, 0x00, 0x00, 0x00, 0x73, 0x65, 0x72, 0x76, 0x69, 0x6e, 0x67, 0x5f,
  0x64, 0x65, 0x66, 0x61, 0x75, 0x6c, 0x74, 0x5f, 0x63, 0x6f, 0x6e, 0x76,
  0x32, 0x64, 0x5f, 0x69, 0x6e, 0x70, 0x75, 0x74, 0x3a, 0x30, 0x00, 0x00,
  0x04, 0x00, 0x00, 0x00, 0xff, 0xff, 0xff, 0xff, 0x40, 0x00, 0x00, 0x00,
  0x03, 0x00, 0x00, 0x00, 0x01, 0x00, 0x00, 0x00, 0xfc, 0xff, 0xff, 0xff,
  0x04, 0x00, 0x04, 0x00, 0x04, 0x00, 0x00, 0x00
};
unsigned int model_tflite_len = 13124;
